{
    "version": "1.0",
    "truncation": null,
    "padding": null,
    "added_tokens": [
      {
        "id": 0,
        "content": "[PAD]",
        "single_word": false,
        "lstrip": false,
        "rstrip": false,
        "normalized": false,
        "special": true
      },
      {
        "id": 1,
        "content": "[BOS]",
        "single_word": false,
        "lstrip": false,
        "rstrip": false,
        "normalized": false,
        "special": true
      },
      {
        "id": 2,
        "content": "[EOS]",
        "single_word": false,
        "lstrip": false,
        "rstrip": false,
        "normalized": false,
        "special": true
      }
    ],
    "normalizer": null,
    "pre_tokenizer": {
      "type": "ByteLevel",
      "add_prefix_space": false,
      "trim_offsets": true,
      "use_regex": true
    },
    "post_processor": null,
    "decoder": null,
    "model": {
      "type": "BPE",
      "dropout": null,
      "unk_token": null,
      "continuing_subword_prefix": null,
      "end_of_word_suffix": null,
      "fuse_unk": false,
      "vocab": {
        "[PAD]": 0,
        "[BOS]": 1,
        "[EOS]": 2,
        "!": 3,
        "\"": 4,
        "#": 5,
        "$": 6,
        "%": 7,
        "&": 8,
        "'": 9,
        "(": 10,
        ")": 11,
        "*": 12,
        "+": 13,
        ",": 14,
        "-": 15,
        ".": 16,
        "/": 17,
        "0": 18,
        "1": 19,
        "2": 20,
        "3": 21,
        "4": 22,
        "5": 23,
        "6": 24,
        "7": 25,
        "8": 26,
        "9": 27,
        ":": 28,
        ";": 29,
        "<": 30,
        "=": 31,
        ">": 32,
        "?": 33,
        "@": 34,
        "A": 35,
        "B": 36,
        "C": 37,
        "D": 38,
        "E": 39,
        "F": 40,
        "G": 41,
        "H": 42,
        "I": 43,
        "J": 44,
        "K": 45,
        "L": 46,
        "M": 47,
        "N": 48,
        "O": 49,
        "P": 50,
        "Q": 51,
        "R": 52,
        "S": 53,
        "T": 54,
        "U": 55,
        "V": 56,
        "W": 57,
        "X": 58,
        "Y": 59,
        "Z": 60,
        "[": 61,
        "\\": 62,
        "]": 63,
        "^": 64,
        "_": 65,
        "`": 66,
        "a": 67,
        "b": 68,
        "c": 69,
        "d": 70,
        "e": 71,
        "f": 72,
        "g": 73,
        "h": 74,
        "i": 75,
        "j": 76,
        "k": 77,
        "l": 78,
        "m": 79,
        "n": 80,
        "o": 81,
        "p": 82,
        "q": 83,
        "r": 84,
        "s": 85,
        "t": 86,
        "u": 87,
        "v": 88,
        "w": 89,
        "x": 90,
        "y": 91,
        "z": 92,
        "{": 93,
        "|": 94,
        "}": 95,
        "~": 96,
        "£": 97,
        "©": 98,
        "ª": 99,
        "¬": 100,
        "°": 101,
        "³": 102,
        "´": 103,
        "º": 104,
        "»": 105,
        "½": 106,
        "¿": 107,
        "Â": 108,
        "Ã": 109,
        "Ä": 110,
        "á": 111,
        "â": 112,
        "ï": 113,
        "ĉ": 114,
        "Ċ": 115,
        "Ġ": 116,
        "Ģ": 117,
        "Ĳ": 118,
        "ĳ": 119,
        "ĵ": 120,
        "Ļ": 121,
        "ł": 122,
        "Ġ}": 123,
        "Ġ{": 124,
        "Ġ\\": 125,
        "Ġ_": 126,
        "Ġ^": 127,
        "Ġ2": 128,
        "Ġ)": 129,
        "Ġ(": 130,
        "ra": 131,
        "Ġ1": 132,
        "Ġ=": 133,
        "rac": 134,
        "frac": 135,
        "Ġ-": 136,
        "ma": 137,
        "Ġ,": 138,
        "th": 139,
        "ig": 140,
        "Ġ+": 141,
        "le": 142,
        "ta": 143,
        "Ġ0": 144,
        "math": 145,
        "Ġi": 146,
        "Ġx": 147,
        "al": 148,
        "ft": 149,
        "igh": 150,
        "righ": 151,
        "in": 152,
        "ar": 153,
        "me": 154,
        "left": 155,
        "right": 156,
        "Ġn": 157,
        "Ġ.": 158,
        "rm": 159,
        "mathrm": 160,
        "Ġa": 161,
        "ph": 162,
        "Ġd": 163,
        "am": 164,
        "Ġt": 165,
        "Ġ\\,": 166,
        "eta": 167,
        "Ġm": 168,
        "}{": 169,
        "Ġ3": 170,
        "Ġk": 171,
        "ti": 172,
        "dfrac": 173,
        "Ġe": 174,
        "Ġr": 175,
        "Ġc": 176,
        "rt": 177,
        "Ġp": 178,
        "mu": 179,
        "Ġs": 180,
        "de": 181,
        "si": 182,
        "Ġ&": 183,
        "sq": 184,
        "sqrt": 185,
        "pr": 186,
        "Ġ4": 187,
        "pi": 188,
        "ot": 189,
        "pha": 190,
        "Ġl": 191,
        "alpha": 192,
        "lo": 193,
        "Ġf": 194,
        "da": 195,
        "dot": 196,
        "Ġj": 197,
        "Ġ|": 198,
        "ĠA": 199,
        "Ġ~": 200,
        "bf": 201,
        "ime": 202,
        "prime": 203,
        "Ġb": 204,
        "psi": 205,
        "lta": 206,
        "bda": 207,
        "ambda": 208,
        "cal": 209,
        "=\\": 210,
        "Ġg": 211,
        "amma": 212,
        "ve": 213,
        "par": 214,
        "Ġy": 215,
        "Ġz": 216,
        "phi": 217,
        "tial": 218,
        "partial": 219,
        "Ġ\\;": 220,
        "Ġq": 221,
        "ĠT": 222,
        "Ġ/": 223,
        "int": 224,
        "ĠM": 225,
        "to": 226,
        "nu": 227,
        "Ġu": 228,
        "ĠN": 229,
        "igma": 230,
        "lambda": 231,
        "ĠB": 232,
        "la": 233,
        "ĠR": 234,
        "lon": 235,
        "ĠL": 236,
        "mathbf": 237,
        "ng": 238,
        "bar": 239,
        "ray": 240,
        "array": 241,
        "ĠS": 242,
        "ngle": 243,
        "Ġ]": 244,
        "beta": 245,
        "ga": 246,
        "mega": 247,
        "su": 248,
        "Ġ\\\\": 249,
        "Ġ[": 250,
        "sigma": 251,
        "{\\": 252,
        "na": 253,
        "gamma": 254,
        "theta": 255,
        "qu": 256,
        "cdot": 257,
        "Ġv": 258,
        "ĠC": 259,
        "op": 260,
        "delta": 261,
        "ĠD": 262,
        "ĠP": 263,
        "ĠF": 264,
        "psilon": 265,
        "Ġh": 266,
        "at": 267,
        "epsilon": 268,
        "hat": 269,
        "Ġ5": 270,
        "Ġo": 271,
        "sum": 272,
        "ĠV": 273,
        "ĠH": 274,
        "ho": 275,
        "var": 276,
        "rho": 277,
        "ĠX": 278,
        "lde": 279,
        "ĠE": 280,
        "tilde": 281,
        "ow": 282,
        "row": 283,
        "tar": 284,
        "fty": 285,
        "infty": 286,
        "en": 287,
        "name": 288,
        "era": 289,
        "rname": 290,
        "torname": 291,
        "opera": 292,
        "operatorname": 293,
        "mathcal": 294,
        "hi": 295,
        "be": 296,
        "end": 297,
        "gin": 298,
        "begin": 299,
        "ad": 300,
        "ĠG": 301,
        "tarrow": 302,
        "quad": 303,
        "Ġ6": 304,
        "omega": 305,
        "ver": 306,
        "over": 307,
        "ĠQ": 308,
        "st": 309,
        "rightarrow": 310,
        "}\\": 311,
        "ĠI": 312,
        "log": 313,
        "co": 314,
        "tau": 315,
        "bo": 316,
        "Ġ*": 317,
        "bol": 318,
        "De": 319,
        "Delta": 320,
        "rangle": 321,
        "^{": 322,
        "ge": 323,
        "yle": 324,
        "style": 325,
        "vec": 326,
        "ĠK": 327,
        "Ġ8": 328,
        "ap": 329,
        "mes": 330,
        "times": 331,
        "sp": 332,
        "ĠU": 333,
        "Gamma": 334,
        "xi": 335,
        "di": 336,
        "ln": 337,
        "Ġ\\}": 338,
        "lay": 339,
        "splay": 340,
        "display": 341,
        "displaystyle": 342,
        "lin": 343,
        "line": 344,
        "Ġw": 345,
        "big": 346,
        "dots": 347,
        "ĠW": 348,
        "sin": 349,
        "mi": 350,
        "-\\": 351,
        "ĠJ": 352,
        "+\\": 353,
        "cos": 354,
        "se": 355,
        "pm": 356,
        "langle": 357,
        "_{": 358,
        "ll": 359,
        "Ġ;": 360,
        "Ġ\\{": 361,
        "Ġ7": 362,
        "Phi": 363,
        "varphi": 364,
        "ĠZ": 365,
        "overline": 366,
        "ex": 367,
        "leq": 368,
        "Ġ<": 369,
        "Ġ:": 370,
        "li": 371,
        ")\\": 372,
        "}}": 373,
        "ts": 374,
        "Ġ9": 375,
        "\\{": 376,
        "Lambda": 377,
        "}}{": 378,
        "Omega": 379,
        ")^": 380,
        "bold": 381,
        "}=\\": 382,
        "Ġ\\!": 383,
        "chi": 384,
        ";-": 385,
        "varepsilon": 386,
        "limi": 387,
        "limits": 388,
        "ĠO": 389,
        "ĠY": 390,
        "pa": 391,
        "Ġ>": 392,
        "sy": 393,
        "sym": 394,
        "symbol": 395,
        "boldsymbol": 396,
        "ell": 397,
        "wi": 398,
        "wide": 399,
        "{\\,": 400,
        "20": 401,
        "pro": 402,
        "ldots": 403,
        "overrightarrow": 404,
        "}=": 405,
        "equ": 406,
        "iv": 407,
        "equiv": 408,
        ")=": 409,
        "kap": 410,
        "kappa": 411,
        "cdots": 412,
        "Big": 413,
        "qquad": 414,
        "(\\": 415,
        "dag": 416,
        "ne": 417,
        "Psi": 418,
        "(-": 419,
        "bla": 420,
        "nabla": 421,
        "tex": 422,
        "set": 423,
        "10": 424,
        "}+": 425,
        "mathb": 426,
        "}^{": 427,
        "\\}": 428,
        "=-": 429,
        "Sigma": 430,
        "ger": 431,
        "dagger": 432,
        "mathbb": 433,
        "text": 434,
        "ca": 435,
        "case": 436,
        "cases": 437,
        "sim": 438,
        "zeta": 439,
        "colon": 440,
        "Ġ\\|": 441,
        "vert": 442,
        "}^": 443,
        "ri": 444,
        "geq": 445,
        "\\\\": 446,
        "prox": 447,
        "approx": 448,
        "201": 449,
        "rc": 450,
        "}{\\": 451,
        "exp": 452,
        "ci": 453,
        "circ": 454,
        "up": 455,
        "12": 456,
        "bigg": 457,
        "otimes": 458,
        "widetilde": 459,
        ")=\\": 460,
        "Ġ!": 461,
        "widehat": 462,
        "+(": 463,
        "er": 464,
        "AB": 465,
        "cup": 466,
        "hbar": 467,
        "}{-": 468,
        "per": 469,
        "perp": 470,
        "Pi": 471,
        "Ġ\\:": 472,
        "};": 473,
        "}-": 474,
        "re": 475,
        "}+\\": 476,
        "us": 477,
        "mid": 478,
        "prod": 479,
        "un": 480,
        "min": 481,
        "meq": 482,
        "simeq": 483,
        "^{\\": 484,
        "der": 485,
        "under": 486,
        "00": 487,
        "sub": 488,
        "ed": 489,
        "wed": 490,
        "wedge": 491,
        "neq": 492,
        "subset": 493,
        "):": 494,
        "Th": 495,
        "Theta": 496,
        "16": 497,
        "fo": 498,
        "tri": 499,
        "_{\\": 500,
        "'(": 501,
        "igne": 502,
        "aligne": 503,
        "aligned": 504,
        "15": 505,
        "tan": 506,
        "ck": 507,
        "ast": 508,
        ",\\": 509,
        "cap": 510,
        "rall": 511,
        "forall": 512,
        "(-\\": 513,
        "mathop": 514,
        "pt": 515,
        "13": 516,
        "cri": 517,
        "),": 518,
        "11": 519,
        "25": 520,
        "underline": 521,
        "sf": 522,
        "textrm": 523,
        "brac": 524,
        "lle": 525,
        "matri": 526,
        "matrix": 527,
        "mx": 528,
        "ab": 529,
        ";+\\": 530,
        ")+": 531,
        "2018": 532,
        "\\|": 533,
        "=-\\": 534,
        ")^{": 535,
        ";\\": 536,
        "star": 537,
        "scri": 538,
        "]{": 539,
        "mathsf": 540,
        "lus": 541,
        "oplus": 542,
        "not": 543,
        "14": 544,
        "brace": 545,
        "minus": 546,
        "}=(": 547,
        "sta": 548,
        "stack": 549,
        "or": 550,
        "setminus": 551,
        "{,": 552,
        "eq": 553,
        "}(": 554,
        "}}\\": 555,
        "'=\\": 556,
        "tfrac": 557,
        "=(": 558,
        "rel": 559,
        "|=": 560,
        "2017": 561,
        "textbf": 562,
        "18": 563,
        "}.": 564,
        "{,}": 565,
        "sure": 566,
        "ensure": 567,
        "ensuremath": 568,
        "stackrel": 569,
        "vartheta": 570,
        "}-\\": 571,
        "[\\": 572,
        "17": 573,
        "BC": 574,
        "27": 575,
        "}_{": 576,
        "prop": 577,
        "propto": 578,
        "em": 579,
        "Bigg": 580,
        "|\\": 581,
        "ralle": 582,
        "paralle": 583,
        "parallel": 584,
        "max": 585,
        ")-": 586,
        "24": 587,
        "ps": 588,
        "maps": 589,
        "mapsto": 590,
        "Ġ-\\": 591,
        "Ve": 592,
        "sinh": 593,
        "script": 594,
        "ABC": 595,
        "Vert": 596,
        "AC": 597,
        "flo": 598,
        "floor": 599,
        "subseteq": 600,
        "[-": 601,
        "textstyle": 602,
        "30": 603,
        "mp": 604,
        "bin": 605,
        "om": 606,
        "binom": 607,
        "nto": 608,
        "phanto": 609,
        "phantom": 610,
        "cosh": 611,
        "parrow": 612,
        "lim": 613,
        "uparrow": 614,
        "ce": 615,
        "boldmath": 616,
        "'=": 617,
        "21": 618,
        "long": 619,
        "sh": 620,
        "]}": 621,
        "biggr": 622,
        "ec": 623,
        "biggl": 624,
        "{{": 625,
        "^\\": 626,
        "})": 627,
        "{-": 628,
        "};\\": 629,
        "SA": 630,
        "fra": 631,
        "mathfra": 632,
        "mathfrak": 633,
        "Bigr": 634,
        "Ġ+\\": 635,
        ")}": 636,
        "Bigl": 637,
        "32": 638,
        "19": 639,
        "Ġ'": 640,
        "top": 641,
        "ect": 642,
        "Ġ{\\": 643,
        "longrightarrow": 644,
        "bigr": 645,
        ").": 646,
        "MN": 647,
        "bigl": 648,
        "cot": 649,
        "angle": 650,
        "ax": 651,
        "ze": 652,
        "size": 653,
        "Ġ=\\": 654,
        "},": 655,
        "}^{\\": 656,
        "bj": 657,
        "bject": 658,
        "36": 659,
        "it": 660,
        "}&": 661,
        "varrho": 662,
        "odot": 663,
        "vdots": 664,
        ":\\": 665,
        "|+": 666,
        ".\\": 667,
        "ddot": 668,
        "100": 669,
        "000": 670,
        "ru": 671,
        "{(": 672,
        "arrow": 673,
        "leftrightarrow": 674,
        "sla": 675,
        "|=\\": 676,
        "triangle": 677,
        "}_": 678,
        "oint": 679,
        "60": 680,
        "bot": 681,
        "2019": 682,
        "40": 683,
        "no": 684,
        ")(": 685,
        "<\\": 686,
        "scriptsize": 687,
        "own": 688,
        "cm": 689,
        "26": 690,
        "AD": 691,
        "down": 692,
        "bu": 693,
        "Xi": 694,
        "rule": 695,
        "SB": 696,
        "llet": 697,
        "bullet": 698,
        "xy": 699,
        "cong": 700,
        "\\{\\": 701,
        "Righ": 702,
        "Rightarrow": 703,
        "23": 704,
        "slash": 705,
        "downarrow": 706,
        "}{(": 707,
        "SC": 708,
        "vee": 709,
        "Ġ20": 710,
        "rfloor": 711,
        "io": 712,
        "iota": 713,
        "tin": 714,
        "tiny": 715,
        "\\,": 716,
        ")}{": 717,
        "50": 718,
        "08": 719,
        "ba": 720,
        "]\\": 721,
        "lbrace": 722,
        "xq": 723,
        "lfloor": 724,
        ")=-": 725,
        "mbe": 726,
        "numbe": 727,
        "nonumbe": 728,
        "nonumber": 729,
        ")>": 730,
        "yset": 731,
        "},\\": 732,
        "ptyset": 733,
        "emptyset": 734,
        "Ġ(\\": 735,
        "29": 736,
        "..": 737,
        "Le": 738,
        "arc": 739,
        "ftrightarrow": 740,
        "Leftrightarrow": 741,
        "il": 742,
        "_{-": 743,
        "bigcup": 744,
        "Ġ10": 745,
        "35": 746,
        "pts": 747,
        "ptstyle": 748,
        "criptstyle": 749,
        "scripts": 750,
        "scriptscriptstyle": 751,
        "}=(-": 752,
        "28": 753,
        "underset": 754,
        "rbrace": 755,
        "mathit": 756,
        "45": 757,
        ",\\,": 758,
        "gg": 759,
        "back": 760,
        "backslash": 761,
        "lef": 762,
        "od": 763,
        "34": 764,
        "'\\": 765,
        "leftarrow": 766,
        "scriptstyle": 767,
        "\\\\&": 768,
        "nd": 769,
        "Ġ(-": 770,
        "ch": 771,
        "ABCD": 772,
        "Ġ--": 773,
        "^{-": 774,
        "22": 775,
        ")^{\\": 776,
        "48": 777,
        "}=-": 778,
        "_{[": 779,
        "eck": 780,
        "check": 781,
        "ace": 782,
        "space": 783,
        "Upsilon": 784,
        "Ġ}{": 785,
        "object": 786,
        "ĠObject": 787,
        "}}+": 788,
        "81": 789,
        "64": 790,
        "bx": 791,
        "brack": 792,
        "33": 793,
        "}}{\\": 794,
        "2020": 795,
        "cfrac": 796,
        ")}^{": 797,
        ")=-\\": 798,
        "ac": 799,
        "MB": 800,
        "}<": 801,
        "overset": 802,
        "\\!": 803,
        ")<": 804,
        "Ġ12": 805,
        "arctan": 806,
        "2016": 807,
        "-(": 808,
        "CD": 809,
        "};+\\": 810,
        "underbrace": 811,
        ">\\": 812,
        "textup": 813,
        "MA": 814,
        "exi": 815,
        "sts": 816,
        "exists": 817,
        "}^{-": 818,
        "imath": 819,
        "ddots": 820,
        "land": 821,
        "49": 822,
        "sma": 823,
        "=|": 824,
        ")=(": 825,
        "AA": 826,
        "75": 827,
        "90": 828,
        ")+\\": 829,
        ";-\\": 830,
        "|^": 831,
        "sup": 832,
        "texts": 833,
        "\\%": 834,
        "}}(": 835,
        "tp": 836,
        "supset": 837,
        "}.\\": 838,
        "''": 839,
        ")}^": 840,
        "mal": 841,
        "Ġ&=": 842,
        "125": 843,
        "}}=": 844,
        "&=": 845,
        "65": 846,
        "Biggl": 847,
        "39": 848,
        "hline": 849,
        "mod": 850,
        "37": 851,
        "_{[-": 852,
        "Ġ{\\,": 853,
        "nor": 854,
        "normal": 855,
        "neg": 856,
        "BD": 857,
        "{{\\": 858,
        "}}}": 859,
        "({": 860,
        "31": 861,
        "<-": 862,
        "Im": 863,
        "Biggr": 864,
        "OA": 865,
        "Ġ}_{": 866,
        "54": 867,
        "Ġcm": 868,
        "120": 869,
        "80": 870,
        "dx": 871,
        "\\{-": 872,
        "Re": 873,
        "lce": 874,
        "lceil": 875,
        "lvert": 876,
        "Ġ\\#": 877,
        "bre": 878,
        "eil": 879,
        "rceil": 880,
        "};-\\": 881,
        ")^{-": 882,
        "pmb": 883,
        "=\\{": 884,
        "72": 885,
        "]^": 886,
        "ĠBC": 887,
        "}+(": 888,
        "lbrack": 889,
        "notin": 890,
        "tt": 891,
        "}}-": 892,
        "=(-\\": 893,
        "}}=\\": 894,
        ",~": 895,
        "rvert": 896,
        "MC": 897,
        "wp": 898,
        "Ġ_{": 899,
        "Ġ16": 900,
        "xrightarrow": 901,
        "Ġ(-\\": 902,
        "jmath": 903,
        "bc": 904,
        "...": 905,
        "upsilon": 906,
        "lVert": 907,
        "textnormal": 908,
        "small": 909,
        "bigoplus": 910,
        "rVert": 911,
        "|+|": 912,
        "Lo": 913,
        "AM": 914,
        "atop": 915,
        "iint": 916,
        "varpi": 917,
        "41": 918,
        "Long": 919,
        "')": 920,
        "',": 921,
        "dash": 922,
        "Ġ{{": 923,
        "38": 924,
        "Ġ}\\": 925,
        "lor": 926,
        "arp": 927,
        "tit": 928,
        "pmod": 929,
        "textit": 930,
        "]{\\": 931,
        "96": 932,
        "=(-": 933,
        "abc": 934,
        "\\!\\!": 935,
        "''(": 936,
        "OM": 937,
        "MNP": 938,
        "'}": 939,
        "thin": 940,
        "Ġ2018": 941,
        "|-": 942,
        "2021": 943,
        "42": 944,
        "Ġ\\_": 945,
        "sc": 946,
        "Ġ=-": 947,
        "200": 948,
        ");": 949,
        "vphantom": 950,
        "Ġ\\\\&": 951,
        "56": 952,
        "bi": 953,
        "cx": 954,
        "EF": 955,
        "vdash": 956,
        "textsf": 957,
        "Ġ15": 958,
        "OB": 959,
        "Ġ;-": 960,
        "44": 961,
        "61": 962,
        "ĠAC": 963,
        "dim": 964,
        "|=|": 965,
        "sec": 966,
        "iz": 967,
        "varsigma": 968,
        "\\;": 969,
        "bmod": 970,
        ")-\\": 971,
        "ale": 972,
        "aleph": 973,
        "52": 974,
        "53": 975,
        "43": 976,
        "47": 977,
        "68": 978,
        "}}}{": 979,
        ";\\,": 980,
        ")}\\": 981,
        ",(": 982,
        ",\\\\": 983,
        "99": 984,
        "SAB": 985,
        "SD": 986,
        "}(\\": 987,
        "otnot": 988,
        "footnot": 989,
        "footnote": 990,
        "|+\\": 991,
        "âĢ": 992,
        "box": 993,
        ")}{\\": 994,
        "Ġmx": 995,
        "âĢĻ": 996,
        "bigcap": 997,
        "breve": 998,
        "footnotesize": 999,
        "51": 1000,
        "={": 1001,
        "bigwedge": 1002,
        "mathbin": 1003,
        "):\\": 1004,
        "arcsin": 1005,
        "),\\": 1006,
        "gets": 1007,
        "dotsc": 1008,
        "BCD": 1009,
        "+...": 1010,
        "ĠAB": 1011,
        "500": 1012,
        "ĠAD": 1013,
        "1009": 1014,
        "Ġ2017": 1015,
        "thinspace": 1016,
        "if": 1017,
        "'(-": 1018,
        "Ġax": 1019,
        "coth": 1020,
        "))": 1021,
        "'}{": 1022,
        "63": 1023,
        "arge": 1024,
        "_{(": 1025,
        "nt": 1026,
        "57": 1027,
        "Ġ[-": 1028,
        "67": 1029,
        "BB": 1030,
        "OC": 1031,
        "[-\\": 1032,
        "rbrack": 1033,
        "csc": 1034,
        "iff": 1035,
        "|_": 1036,
        "textsc": 1037,
        "85": 1038,
        "^{-\\": 1039,
        ")|": 1040,
        "55": 1041,
        "SN": 1042,
        "),(": 1043,
        "Longrightarrow": 1044,
        "SBC": 1045,
        "substack": 1046,
        "'.": 1047,
        "}>": 1048,
        "mbox": 1049,
        ")}=": 1050,
        "62": 1051,
        "^{(": 1052,
        "es": 1053,
        "Ġ\\/": 1054,
        "108": 1055,
        "'+": 1056,
        "'=-\\": 1057,
        "imp": 1058,
        "lies": 1059,
        "implies": 1060,
        "krightarrow": 1061,
        "okrightarrow": 1062,
        "hookrightarrow": 1063,
        "73": 1064,
        "=[": 1065,
        "_\\": 1066,
        "xf": 1067,
        "ĠĠ": 1068,
        "Ġ000": 1069,
        "1000": 1070,
        "prec": 1071,
        "Ġ+(": 1072,
        "ĠSB": 1073,
        "}=-\\": 1074,
        "smash": 1075,
        "66": 1076,
        "77": 1077,
        "ker": 1078,
        "mit": 1079,
        "}+{": 1080,
        "={\\": 1081,
        "].": 1082,
        "};-": 1083,
        "Ġ^{": 1084,
        "oo": 1085,
        "arpoo": 1086,
        "]}{\\": 1087,
        "})^": 1088,
        "}\\\\": 1089,
        "&=-": 1090,
        ")]^": 1091,
        "):(": 1092,
        "tharpoo": 1093,
        "ak": 1094,
        "break": 1095,
        "}|": 1096,
        "lap": 1097,
        "}}.": 1098,
        "(|": 1099,
        "74": 1100,
        "}'": 1101,
        "CT": 1102,
        "SAC": 1103,
        "bigtriangle": 1104,
        "texttt": 1105,
        ">-": 1106,
        "CA": 1107,
        "Ox": 1108,
        "\\,\\": 1109,
        "^+": 1110,
        "lnot": 1111,
        "Ġ\\{-": 1112,
        "128": 1113,
        "{{{": 1114,
        "ref": 1115,
        "Ġ\"": 1116,
        "97": 1117,
        "})\\": 1118,
        "}};\\": 1119,
        "sharp": 1120,
        "ond": 1121,
        "amond": 1122,
        ")]": 1123,
        "BAC": 1124,
        "CC": 1125,
        "IJ": 1126,
        "NN": 1127,
        "SM": 1128,
        "te": 1129,
        "Ġ?": 1130,
        "Ġ13": 1131,
        "}{{": 1132,
        "ĠCD": 1133,
        "360": 1134,
        "98": 1135,
        "){\\": 1136,
        "95": 1137,
        "MD": 1138,
        "}\\,": 1139,
        "}}+\\": 1140,
        "144": 1141,
        "+...+": 1142,
        "'}=\\": 1143,
        "SO": 1144,
        "ay": 1145,
        "Ġ\\%": 1146,
        "bigvee": 1147,
        "}}{{": 1148,
        "70": 1149,
        "ute": 1150,
        "Ġ=-\\": 1151,
        "acute": 1152,
        "diamond": 1153,
        "!}": 1154,
        "Oy": 1155,
        "doteq": 1156,
        "stru": 1157,
        "slant": 1158,
        "Longleftrightarrow": 1159,
        "strut": 1160,
        "arg": 1161,
        "Bo": 1162,
        "Box": 1163,
        "'=-": 1164,
        "58": 1165,
        "600": 1166,
        "by": 1167,
        "|}": 1168,
        "Ġ25": 1169,
        "ĠSC": 1170,
        "150": 1171,
        ")^{-\\": 1172,
        "rightharpoo": 1173,
        "rlap": 1174,
        "sqcup": 1175,
        "'-": 1176,
        "46": 1177,
        "76": 1178,
        "82": 1179,
        "iiint": 1180,
        "Ġ11": 1181,
        "250": 1182,
        "SCD": 1183,
        "deg": 1184,
        "supseteq": 1185,
        "216": 1186,
        "400": 1187,
        "DC": 1188,
        "Ġ)\\": 1189,
        "ĠSA": 1190,
        "}}^": 1191,
        "Ġ14": 1192,
        "'=(": 1193,
        "01": 1194,
        "91": 1195,
        "Bh": 1196,
        "sb": 1197,
        "mathtt": 1198,
        "=\\{-": 1199,
        "emph": 1200,
        "78": 1201,
        "^-": 1202,
        "sk": 1203,
        "{)}^{": 1204,
        "Ġ`": 1205,
        "}}-\\": 1206,
        "longleftrightarrow": 1207,
        "SAD": 1208,
        "nup": 1209,
        "),\\,": 1210,
        "Oxy": 1211,
        "ip": 1212,
        "|.": 1213,
        "}(-": 1214,
        "{\\;": 1215,
        "}\\}": 1216,
        "skip": 1217,
        "rightharpoonup": 1218,
        "bigotimes": 1219,
        "))=": 1220,
        "AH": 1221,
        "large": 1222,
        "ing": 1223,
        "Ġab": 1224,
        "longmapsto": 1225,
        "ni": 1226,
        ")+(": 1227,
        "BA": 1228,
        "NC": 1229,
        "ring": 1230,
        "{|": 1231,
        "mathring": 1232,
        "Ġ;+\\": 1233,
        "88": 1234,
        "II": 1235,
        "SS": 1236,
        "ĠBD": 1237,
        ",\\,\\": 1238,
        "Ġ2019": 1239,
        "fi": 1240,
        "low": 1241,
        ".}": 1242,
        "300": 1243,
        "59": 1244,
        "ASB": 1245,
        "}<\\": 1246,
        "allow": 1247,
        ")\\,": 1248,
        "256": 1249,
        "{,}\\": 1250,
        "ACD": 1251,
        "SBD": 1252,
        "allowbreak": 1253,
        "AN": 1254,
        "cc": 1255,
        "succ": 1256,
        "overbrace": 1257,
        "bigtriangleup": 1258,
        "={{": 1259,
        "bb": 1260,
        "}>\\": 1261,
        "Ġ}}": 1262,
        "Ġ_{\\": 1263,
        "Ġ24": 1264,
        "Ġ100": 1265,
        "}{{\\": 1266,
        "Ġ45": 1267,
        "}^*": 1268,
        ")>\\": 1269,
        "^+}": 1270,
        "varDelta": 1271,
        ")<\\": 1272,
        "625": 1273,
        "OO": 1274,
        "{-\\": 1275,
        "Ġ18": 1276,
        "Ġbx": 1277,
        "enspace": 1278,
        "Ġ60": 1279,
        "2000": 1280,
        "}-(": 1281,
        "Ġ|\\": 1282,
        "'\\\\": 1283,
        ")}=\\": 1284,
        "+{(": 1285,
        "Large": 1286,
        "SH": 1287,
        "cz": 1288,
        "Ġ)^": 1289,
        "}{|": 1290,
        "ĠABC": 1291,
        "105": 1292,
        "prot": 1293,
        "protect": 1294,
        "BM": 1295,
        "BAD": 1296,
        "CB": 1297,
        "Ġ27": 1298,
        "180": 1299,
        "ACB": 1300,
        "Ġxf": 1301,
        "!}{": 1302,
        "'}=": 1303,
        ";+": 1304,
        "<-\\": 1305,
        "ON": 1306,
        "mz": 1307,
        "yi": 1308,
        "|(": 1309,
        "leqslant": 1310,
        "2015": 1311,
        "ABD": 1312,
        "MNPQ": 1313,
        "fill": 1314,
        "div": 1315,
        ")|\\": 1316,
        "+{\\": 1317,
        "69": 1318,
        "84": 1319,
        "87": 1320,
        "BN": 1321,
        "Bbb": 1322,
        "NM": 1323,
        "hfill": 1324,
        "|{": 1325,
        "ĠSD": 1326,
        "}}^{\\": 1327,
        "0000": 1328,
        "160": 1329,
        "\\!\\!\\!\\!": 1330,
        "))=\\": 1331,
        "+|": 1332,
        "DA": 1333,
        "hdots": 1334,
        "my": 1335,
        "|-\\": 1336,
        "Ġ=(": 1337,
        "^*": 1338,
        "ominus": 1339,
        "101": 1340,
        ")}(": 1341,
        "83": 1342,
        "86": 1343,
        "800": 1344,
        "93": 1345,
        "nx": 1346,
        "{.}": 1347,
        "Ġ}=\\": 1348,
        "Ġ40": 1349,
        ")=+\\": 1350,
        ").\\": 1351,
        "triangleq": 1352,
        "ddagger": 1353,
        ")'=": 1354,
        "71": 1355,
        "IA": 1356,
        "az": 1357,
        "|<": 1358,
        "|_{\\": 1359,
        "Ġdx": 1360,
        "overleftarrow": 1361,
        "_{}": 1362,
        ")=|": 1363,
        "}'{": 1364,
        "mo": 1365,
        "mathor": 1366,
        "mathstrut": 1367,
        "sqcap": 1368,
        "null": 1369,
        "mode": 1370,
        "mathord": 1371,
        "varno": 1372,
        "thing": 1373,
        "varnothing": 1374,
        "&\\!\\!\\!\\!": 1375,
        "({\\": 1376,
        ")]\\": 1377,
        ",-": 1378,
        "225": 1379,
        "94": 1380,
        "tag": 1381,
        "Ġrl": 1382,
        "ĠAA": 1383,
        "ĠRh": 1384,
        ")\\\\": 1385,
        "}}}\\": 1386,
        "}+{\\": 1387,
        "\\\\\\": 1388,
        "119": 1389,
        "}}+{{": 1390,
        "ls": 1391,
        "ro": 1392,
        "Ġ@": 1393,
        "bigstar": 1394,
        "underbar": 1395,
        ")(\\": 1396,
        "AMN": 1397,
        "HK": 1398,
        "SI": 1399,
        "Sh": 1400,
        "ter": 1401,
        "{[": 1402,
        "|}{": 1403,
        "~(": 1404,
        "Ġ\\&": 1405,
        "Ġ)=": 1406,
        "Ġ32": 1407,
        "Ġ36": 1408,
        "Ġ\\\\\\": 1409,
        "4036": 1410,
        ">-\\": 1411,
        "models": 1412,
        "=(\\": 1413,
        "ND": 1414,
        "PQ": 1415,
        "[(": 1416,
        "dy": 1417,
        "fla": 1418,
        "sl": 1419,
        "uv": 1420,
        "Ġ{-": 1421,
        ",\\;": 1422,
        "BCC": 1423,
        "\\%/": 1424,
        "^-}": 1425,
        "flat": 1426,
        "cdotp": 1427,
        "dm": 1428,
        ")?": 1429,
        ".{": 1430,
        "512": 1431,
        "89": 1432,
        "92": 1433,
        "AG": 1434,
        "CN": 1435,
        "Oz": 1436,
        "llde": 1437,
        "nullde": 1438,
        "}},": 1439,
        ")^\\": 1440,
        "limiter": 1441,
        ")-(": 1442,
        "240": 1443,
        "'''": 1444,
        "kern": 1445,
        "nulldelimiter": 1446,
        "nulldelimiterspace": 1447,
        "lg": 1448,
        "mathrel": 1449,
        "Ġ\\,\\": 1450,
        "unboldmath": 1451,
        ")}+": 1452,
        "112": 1453,
        "AE": 1454,
        "AK": 1455,
        "NB": 1456,
        "NS": 1457,
        "bz": 1458,
        "mn": 1459,
        "})^{": 1460,
        "Ġ64": 1461,
        "}}>": 1462,
        "}}}{\\": 1463,
        "Ġ90": 1464,
        "}+...": 1465,
        "135": 1466,
        "1008": 1467,
        "Ġ2020": 1468,
        "CM": 1469,
        "}/": 1470,
        "Ġ...": 1471,
        "';": 1472,
        "))^": 1473,
        "05": 1474,
        "115": 1475,
        "79": 1476,
        "=[-": 1477,
        "BSC": 1478,
        "KD": 1479,
        "],": 1480,
        "Ġ35": 1481,
        "ĠABCD": 1482,
        "ĠOB": 1483,
        "ĠOy": 1484,
        "):\\,": 1485,
        "})}{": 1486,
        "}\\\\&": 1487,
        "110": 1488,
        "\\:": 1489,
        "]=": 1490,
        "140": 1491,
        "roup": 1492,
        "jlim": 1493,
        "med": 1494,
        ")}}": 1495,
        ")'=\\": 1496,
        ")!}": 1497,
        "AI": 1498,
        "AP": 1499,
        "CP": 1500,
        "OAB": 1501,
        "\\#": 1502,
        "|>": 1503,
        "})=": 1504,
        "}_{\\": 1505,
        "~\\": 1506,
        "Ġ}^": 1507,
        "Ġ}{\\": 1508,
        "Ġ)^{": 1509,
        "Ġ\\,(": 1510,
        "ĠMN": 1511,
        "_{_": 1512,
        "Ġ;\\": 1513,
        "104": 1514,
        "243": 1515,
        "xyz": 1516,
        "dotsb": 1517,
        "group": 1518,
        "ule": 1519,
        "searrow": 1520,
        "Ġ---": 1521,
        "DB": 1522,
        "}|=": 1523,
        "Ġ}_{\\": 1524,
        "Ġ\\{\\": 1525,
        "Ġ21": 1526,
        "Ġ30": 1527,
        ")={\\": 1528,
        "103": 1529,
        "169": 1530,
        "130": 1531,
        "]{(": 1532,
        "medskip": 1533,
        "cs": 1534,
        "csname": 1535,
        "font": 1536,
        "normalfont": 1537,
        "preceq": 1538,
        ")|=": 1539,
        "CSA": 1540,
        "MP": 1541,
        "OI": 1542,
        "]^{": 1543,
        "af": 1544,
        "cb": 1545,
        "khi": 1546,
        "|^{": 1547,
        "}]": 1548,
        "Ġ+{(": 1549,
        "sqsubseteq": 1550,
        "=\\{(": 1551,
        "^{|": 1552,
        ")\\,\\": 1553,
        "}}<": 1554,
        "}}{(": 1555,
        "102": 1556,
        "109": 1557,
        "}-{": 1558,
        ",\\!": 1559,
        "eqref": 1560,
        "|=|\\": 1561,
        "192": 1562,
        "triangleleft": 1563,
        "343": 1564,
        "480": 1565,
        "bigtriangledown": 1566,
        "Oxz": 1567,
        "IJK": 1568,
        "}/\\": 1569,
        "Vdash": 1570,
        "107": 1571,
        "121": 1572,
        "':\\": 1573,
        "cd": 1574,
        "subsetneq": 1575,
        "!}{(": 1576,
        ")}^{\\": 1577,
        ",+\\": 1578,
        ",(\\": 1579,
        "-{": 1580,
        ".(": 1581,
        "07": 1582,
        "220": 1583,
        "324": 1584,
        "={{\\": 1585,
        "IC": 1586,
        "bd": 1587,
        "km": 1588,
        "Ġ{-\\": 1589,
        "Ġ17": 1590,
        "Ġdm": 1591,
        "^{^{\\": 1592,
        "Ġ<-": 1593,
        "}}^{": 1594,
        "\\{-\\": 1595,
        "Ġ>\\": 1596,
        "208": 1597,
        "1010": 1598,
        "1024": 1599,
        "\\}.": 1600,
        "geqslant": 1601,
        "124": 1602,
        "):-": 1603,
        "136": 1604,
        "145": 1605,
        "nobreak": 1606,
        "Oyz": 1607,
        "Ġ54": 1608,
        "Ġpt": 1609,
        "'>": 1610,
        "'}\\": 1611,
        "''=": 1612,
        "){": 1613,
        "06": 1614,
        "DD": 1615,
        "SABC": 1616,
        "\\;\\": 1617,
        "``": 1618,
        "|}{\\": 1619,
        "}[": 1620,
        "Ġ\\;{\\": 1621,
        "enskip": 1622,
        "_{-\\": 1623,
        "2022": 1624,
        "106": 1625,
        "}^\\": 1626,
        "123": 1627,
        "147": 1628,
        "2400": 1629,
        "304": 1630,
        "}&(": 1631,
        "4034": 1632,
        "265": 1633,
        "\\,(": 1634,
        "289": 1635,
        "}}+{{\\": 1636,
        "'''(": 1637,
        "âĢĻ(": 1638,
        "Oxyz": 1639,
        "^*}": 1640,
        "asym": 1641,
        "ral": 1642,
        "Ġbi": 1643,
        "asymp": 1644,
        "'<": 1645,
        "'}}{": 1646,
        "'(\\": 1647,
        "02": 1648,
        "4000": 1649,
        "5000": 1650,
        "ASC": 1651,
        "BH": 1652,
        "GG": 1653,
        "IB": 1654,
        "|}^": 1655,
        "|<\\": 1656,
        "Ġ120": 1657,
        "Ġrh": 1658,
        "ĠRl": 1659,
        "ĠSAB": 1660,
        "Ġ:\\": 1661,
        "}}}}": 1662,
        "}^{{": 1663,
        "126": 1664,
        "127": 1665,
        "162": 1666,
        "153": 1667,
        "133": 1668,
        "),~": 1669,
        "ACC": 1670,
        "190": 1671,
        "SCA": 1672,
        "},\\,": 1673,
        "280": 1674,
        "288": 1675,
        "|-|": 1676,
        ")]=": 1677,
        "}+...+\\": 1678,
        "upper": 1679,
        "uppercase": 1680,
        "''\\": 1681,
        ");\\,": 1682,
        "-|": 1683,
        "215": 1684,
        "320": 1685,
        "350": 1686,
        "375": 1687,
        "725": 1688,
        "=&": 1689,
        "=&\\!\\!\\!\\!": 1690,
        "AOB": 1691,
        "HB": 1692,
        "IM": 1693,
        "MK": 1694,
        "OMN": 1695,
        "SP": 1696,
        "mt": 1697,
        "{[-": 1698,
        "|)": 1699,
        "Ġad": 1700,
        "Ġ\\,\\,": 1701,
        "Ġcx": 1702,
        "Ġ50": 1703,
        "\\{{": 1704,
        "ĠOC": 1705,
        "ĠOx": 1706,
        "207": 1707,
        "2014": 1708,
        "164": 1709,
        "165": 1710,
        "168": 1711,
        "117": 1712,
        "SBA": 1713,
        "Ġ2016": 1714,
        "+...+\\": 1715,
        "&\\!\\!\\!\\!=&\\!\\!\\!\\!": 1716,
        "dddot": 1717,
        "varpro": 1718,
        "textsub": 1719,
        "156": 1720,
        "arrowvert": 1721,
        "varprojlim": 1722,
        "textsubscript": 1723,
        "ldot": 1724,
        "eqno": 1725,
        "succeq": 1726,
        "'}+\\": 1727,
        ")}}{": 1728,
        ")}-": 1729,
        "+}": 1730,
        "210": 1731,
        "211": 1732,
        "315": 1733,
        "449": 1734,
        "545": 1735,
        "900": 1736,
        "AMB": 1737,
        "AEF": 1738,
        "DN": 1739,
        "HA": 1740,
        "IH": 1741,
        "MI": 1742,
        "aa": 1743,
        "{(\\": 1744,
        "||": 1745,
        "|_{": 1746,
        "})=\\": 1747,
        "}:\\": 1748,
        "}|=\\": 1749,
        "Ġ}^{": 1750,
        "Ġ^\\": 1751,
        "Ġ26": 1752,
        "Ġ):": 1753,
        "Ġ=\\{": 1754,
        "Ġkf": 1755,
        "=\\{\\": 1756,
        "ĠMC": 1757,
        "suit": 1758,
        "_{_{": 1759,
        "nearrow": 1760,
        "ABB": 1761,
        ";\\;": 1762,
        "170": 1763,
        "176": 1764,
        "270": 1765,
        "272": 1766,
        "242": 1767,
        "245": 1768,
        "4035": 1769,
        "238": 1770,
        "290": 1771,
        "354": 1772,
        "''+": 1773,
        "'))": 1774,
        "+...+(": 1775,
        "ldotp": 1776,
        "ns": 1777,
        "Pr": 1778,
        "amal": 1779,
        "tu": 1780,
        "natu": 1781,
        "longleftarrow": 1782,
        "amalg": 1783,
        "natural": 1784,
        "&=\\": 1785,
        ")}+\\": 1786,
        ")}{(": 1787,
        "-{\\": 1788,
        "325": 1789,
        "450": 1790,
        "840": 1791,
        "AO": 1792,
        "CEF": 1793,
        "IV": 1794,
        "MG": 1795,
        "MQ": 1796,
        "NP": 1797,
        "PN": 1798,
        "\\}\\": 1799,
        "bt": 1800,
        "rd": 1801,
        "}'=\\": 1802,
        "Ġ{{\\": 1803,
        "Ġ)=\\": 1804,
        "}{{{": 1805,
        "Ġ|^": 1806,
        "ĠMB": 1807,
        "surd": 1808,
        "}\\,\\": 1809,
        "_{(-": 1810,
        "ĠON": 1811,
        "ĠOz": 1812,
        ")={": 1813,
        "=-{": 1814,
        "1600": 1815,
        "114": 1816,
        "252": 1817,
        "253": 1818,
        "278": 1819,
        "}).": 1820,
        "};\\,": 1821,
        "199": 1822,
        "MNC": 1823,
        "4038": 1824,
        "ADC": 1825,
        "leftharpoo": 1826,
        "\\\\&(": 1827,
        "({-\\": 1828,
        "),\\;": 1829,
        "576": 1830,
        "diamondsuit": 1831,
        "III": 1832,
        "624": 1833,
        "llap": 1834,
        "ner": 1835,
        "137": 1836,
        "ds": 1837,
        "oun": 1838,
        "poun": 1839,
        "rightleftharpoo": 1840,
        "Ġmm": 1841,
        "triangleright": 1842,
        "pounds": 1843,
        "rightleftharpoons": 1844,
        "\"(": 1845,
        "({-": 1846,
        ")}.": 1847,
        "+{": 1848,
        "03": 1849,
        "04": 1850,
        "212": 1851,
        "412": 1852,
        "729": 1853,
        "70000": 1854,
        "960": 1855,
        "=+\\": 1856,
        "=|\\": 1857,
        "GH": 1858,
        "GM": 1859,
        "HC": 1860,
        "HD": 1861,
        "MH": 1862,
        "Max": 1863,
        "YZ": 1864,
        "ebox": 1865,
        "kebox": 1866,
        "vline": 1867,
        "{}^\\": 1868,
        "|)=": 1869,
        "¿½": 1870,
        "ï¿½": 1871,
        "Ġï¿½": 1872,
        "Ġ}}\\,": 1873,
        "Ġ\\-": 1874,
        "Ġ)}": 1875,
        "Ġ19": 1876,
        "makebox": 1877,
        "Ġxy": 1878,
        "Ġ.\\": 1879,
        "}{(\\": 1880,
        "Ġ&-": 1881,
        "Ġ&\\": 1882,
        "squ": 1883,
        "ĠSBC": 1884,
        "ĠCA": 1885,
        "varOmega": 1886,
        "varSigma": 1887,
        "}\\!": 1888,
        "}\\,(": 1889,
        "Ġ<\\": 1890,
        ")\\;": 1891,
        "}};": 1892,
        "}}>\\": 1893,
        "205": 1894,
        "2010": 1895,
        "122": 1896,
        "ABM": 1897,
        "161": 1898,
        "),(\\": 1899,
        "118": 1900,
        "143": 1901,
        "185": 1902,
        "Vec": 1903,
        "SBN": 1904,
        "234": 1905,
        "486": 1906,
        "}<|": 1907,
        ")<{": 1908,
        "CDD": 1909,
        "2009": 1910,
        ");(": 1911,
        ";\\,-": 1912,
        ")}\\,": 1913,
        "})\\\\": 1914,
        ")\\\\&": 1915,
        "ss": 1916,
        "are": 1917,
        "Ġex": 1918,
        "square": 1919,
        "endcsname": 1920,
        "dotsm": 1921,
        "smallsetminus": 1922,
        "!\\": 1923,
        "'^": 1924,
        "')^": 1925,
        "(*": 1926,
        ")'": 1927,
        ")}}\\": 1928,
        ",}\\": 1929,
        "113": 1930,
        "217": 1931,
        "521": 1932,
        "620": 1933,
        "645": 1934,
        "648": 1935,
        "672": 1936,
        "750": 1937,
        ";(": 1938,
        "={(": 1939,
        "AMNP": 1940,
        "BF": 1941,
        "BEF": 1942,
        "CE": 1943,
        "DE": 1944,
        "FE": 1945,
        "FG": 1946,
        "GE": 1947,
        "IK": 1948,
        "KL": 1949,
        "MM": 1950,
        "NA": 1951,
        "OD": 1952,
        "OP": 1953,
        "PA": 1954,
        "SE": 1955,
        "SK": 1956,
        "ah": 1957,
        "bow": 1958,
        "hphantom": 1959,
        "smi": 1960,
        "xe": 1961,
        "|}+": 1962,
        "}?": 1963,
        "})-": 1964,
        "Ġ{(": 1965,
        "Ġ\\*": 1966,
        "Ġ28": 1967,
        "Ġ((": 1968,
        "Ġ={\\": 1969,
        "mathc": 1970,
        "Ġiz": 1971,
        "Ġkm": 1972,
        "tie": 1973,
        "Ġ400": 1974,
        "Ġ~\\": 1975,
        "ĠBh": 1976,
        "ĠSS": 1977,
        "Ġ500": 1978,
        "coprod": 1979,
        "}}}+": 1980,
        "}}{-": 1981,
        "2025": 1982,
        "}={": 1983,
        "}=(-\\": 1984,
        ")=(-": 1985,
        "ABN": 1986,
        "005": 1987,
        "00000": 1988,
        "]{{": 1989,
        "148": 1990,
        "184": 1991,
        "187": 1992,
        "188": 1993,
        "171": 1994,
        "175": 1995,
        "177": 1996,
        "BCNM": 1997,
        "275": 1998,
        "405": 1999,
        "503": 2000,
        "504": 2001,
        ",\\,(": 2002,
        "\\!,": 2003,
        "''(\\": 2004,
        "1200": 2005,
        "âĢĻ=": 2006,
        "0115": 2007,
        "AHK": 2008,
        "bowtie": 2009,
        "smile": 2010,
        "':": 2011,
        "bigm": 2012,
        "bigsqcup": 2013,
        "141": 2014,
        "oslash": 2015,
        "}}=-": 2016,
        "uplus": 2017,
        "!.": 2018,
        "'+\\": 2019,
        "))\\": 2020,
        ")!}{": 2021,
        "032": 2022,
        "230": 2023,
        "260": 2024,
        "336": 2025,
        "345": 2026,
        "430": 2027,
        "440": 2028,
        "590": 2029,
        "720": 2030,
        "=~": 2031,
        "BK": 2032,
        "BMD": 2033,
        "CAB": 2034,
        "ED": 2035,
        "IAB": 2036,
        "OF": 2037,
        "OH": 2038,
        "PD": 2039,
        "Ti": 2040,
        "[{": 2041,
        "\\}}": 2042,
        "]}=": 2043,
        "ai": 2044,
        "dB": 2045,
        "frow": 2046,
        "rtimes": 2047,
        "xa": 2048,
        "xOy": 2049,
        "|,": 2050,
        "|.\\": 2051,
        "}'(": 2052,
        "})+": 2053,
        "Ġ}}{": 2054,
        "Ġ}}\\": 2055,
        "Ġ22": 2056,
        "Ġ23": 2057,
        "Ġ200": 2058,
        "Ġ281": 2059,
        "Ġ)+": 2060,
        "Ġ-(": 2061,
        "mathin": 2062,
        "Ġ34": 2063,
        "Ġcz": 2064,
        "det": 2065,
        "Ġ48": 2066,
        "lose": 2067,
        "Ġ|=": 2068,
        "Ġ|_": 2069,
        "ĠACD": 2070,
        "ĠBB": 2071,
        "ĠBN": 2072,
        "Ġ]\\": 2073,
        "ĠPQ": 2074,
        "}\\;\\": 2075,
        "_{(-\\": 2076,
        "Ġ72": 2077,
        ")\\}": 2078,
        "}})": 2079,
        "}}<\\": 2080,
        "2048": 2081,
        "}={{": 2082,
        "}^{-\\": 2083,
        "129": 2084,
        "004": 2085,
        "163": 2086,
        "152": 2087,
        "154": 2088,
        "155": 2089,
        "mathopen": 2090,
        "132": 2091,
        ";\\,\\": 2092,
        "}.{": 2093,
        "BCA": 2094,
        "}_{(": 2095,
        "}_{(\\": 2096,
        "246": 2097,
        "ACM": 2098,
        "{{{\\": 2099,
        "196": 2100,
        "MNQ": 2101,
        "notag": 2102,
        "ADF": 2103,
        "Ġ2021": 2104,
        "285": 2105,
        "346": 2106,
        "646": 2107,
        "''-": 2108,
        "negthinspace": 2109,
        "542": 2110,
        ",~\\": 2111,
        "^+_": 2112,
        "NNNN": 2113,
        "^-_": 2114,
        "mathclose": 2115,
        "Tilde": 2116,
        "frown": 2117,
        "mathinner": 2118,
        "md": 2119,
        "thi": 2120,
        "injlim": 2121,
        "inter": 2122,
        "lax": 2123,
        "varinjlim": 2124,
        "textmd": 2125,
        "relax": 2126,
        "111": 2127,
        "fil": 2128,
        "hfil": 2129,
        "xleftarrow": 2130,
        "overleftrightarrow": 2131,
        "thick": 2132,
        "intercal": 2133,
        "!(": 2134,
        "&>": 2135,
        "'|": 2136,
        "'}(": 2137,
        ")}=(": 2138,
        ")}-\\": 2139,
        ")|=\\": 2140,
        ")|-": 2141,
        ")~\\": 2142,
        "+{{\\": 2143,
        "116": 2144,
        "232": 2145,
        "313": 2146,
        "330": 2147,
        "332": 2148,
        "420": 2149,
        "432": 2150,
        "529": 2151,
        "675": 2152,
        "667": 2153,
        "700": 2154,
        "726": 2155,
        "768": 2156,
        "815": 2157,
        "928": 2158,
        "<|": 2159,
        "AF": 2160,
        "AMC": 2161,
        "BE": 2162,
        "BG": 2163,
        "BI": 2164,
        "BP": 2165,
        "BMC": 2166,
        "CSB": 2167,
        "DBC": 2168,
        "HE": 2169,
        "KB": 2170,
        "MAB": 2171,
        "MBC": 2172,
        "OS": 2173,
        "OBC": 2174,
        "OABC": 2175,
        "PC": 2176,
        "PM": 2177,
        "QC": 2178,
        "TT": 2179,
        "]=\\": 2180,
        "]}\\": 2181,
        "]=(": 2182,
        "dt": 2183,
        "gt": 2184,
        "hB": 2185,
        "kx": 2186,
        "lse": 2187,
        "yz": 2188,
        "|{\\": 2189,
        "|}\\": 2190,
        "|=-": 2191,
        "|>\\": 2192,
        "}~(": 2193,
        "~=~": 2194,
        "Ġ\\'": 2195,
        "Ġ).": 2196,
        "Ġ)=-": 2197,
        "Ġnx": 2198,
        "Ġ|=\\": 2199,
        "ĠAN": 2200,
        "Ġbc": 2201,
        "Ġby": 2202,
        "Ġbz": 2203,
        "ĠMA": 2204,
        "ĠNSS": 2205,
        "ĠSSN": 2206,
        "Ġ[\\": 2207,
        "ĠDN": 2208,
        "Ġhr": 2209,
        "Ġ61": 2210,
        "ĠIAB": 2211,
        "^{'}(": 2212,
        "Ġ81": 2213,
        "}}}=": 2214,
        "}},\\": 2215,
        "}}:\\": 2216,
        "}}.\\": 2217,
        "Ġ96": 2218,
        "}}{{\\": 2219,
        "}}{{(": 2220,
        ")^-": 2221,
        "Ġ>-": 2222,
        "204": 2223,
        "2024": 2224,
        "2035": 2225,
        "}=+\\": 2226,
        "10000": 2227,
        "}^{{{": 2228,
        "\\},": 2229,
        "=-{{": 2230,
        "0065": 2231,
        "1500": 2232,
        "134": 2233,
        "139": 2234,
        "1350": 2235,
        "2500": 2236,
        "146": 2237,
        "149": 2238,
        "1725": 2239,
        "BCE": 2240,
        "BCMN": 2241,
        "|\\,": 2242,
        "248": 2243,
        "2450": 2244,
        "309": 2245,
        "195": 2246,
        "},...": 2247,
        "369": 2248,
        "4040": 2249,
        "269": 2250,
        "ADD": 2251,
        "239": 2252,
        "SCB": 2253,
        "SCMN": 2254,
        "293": 2255,
        "455": 2256,
        "ABCDEF": 2257,
        "CDM": 2258,
        "}}}{{": 2259,
        ";\\,+\\": 2260,
        "ĠĠĠĠ": 2261,
        "NNS": 2262,
        "^-}\\": 2263,
        "SSS": 2264,
        ")\\,|\\,": 2265,
        "Ġ1009": 2266,
        "}+...+": 2267,
        "Down": 2268,
        "he": 2269,
        "mpeq": 2270,
        "bumpeq": 2271,
        "^*}\\": 2272,
        "Downarrow": 2273,
        "Uparrow": 2274,
        "efo": 2275,
        "gcd": 2276,
        "ohe": 2277,
        "tw": 2278,
        "warrow": 2279,
        "ther": 2280,
        "leme": 2281,
        "adrightarrow": 2282,
        "comp": 2283,
        "with": 2284,
        "smallskip": 2285,
        "efore": 2286,
        "oheadrightarrow": 2287,
        "twoheadrightarrow": 2288,
        "therefore": 2289,
        "lement": 2290,
        "complement": 2291,
        "'+(": 2292,
        "*)": 2293,
        "+(\\": 2294,
        ",}": 2295,
        ",-\\": 2296,
        ",...": 2297,
        "-{{": 2298,
        ".{\\": 2299,
        "..\\": 2300,
        "09": 2301,
        "017": 2302,
        "068": 2303,
        "223": 2304,
        "2278": 2305,
        "311": 2306,
        "3000": 2307,
        "340": 2308,
        "380": 2309,
        "520": 2310,
        "513": 2311,
        "540": 2312,
        "575": 2313,
        "6000": 2314,
        "680": 2315,
        "7000": 2316,
        "844": 2317,
        "975": 2318,
        "937": 2319,
        ";{": 2320,
        "BMN": 2321,
        "DI": 2322,
        "DP": 2323,
        "DQ": 2324,
        "DAB": 2325,
        "EC": 2326,
        "FC": 2327,
        "FH": 2328,
        "Hat": 2329,
        "IF": 2330,
        "IO": 2331,
        "IBC": 2332,
        "KI": 2333,
        "MS": 2334,
        "MON": 2335,
        "Nr": 2336,
        "NSN": 2337,
        "OG": 2338,
        "PB": 2339,
        "QB": 2340,
        "Sa": 2341,
        "[{\\": 2342,
        "[]{": 2343,
        "[{-": 2344,
        "]}{": 2345,
        "]}^": 2346,
        "]=(-": 2347,
        "dle": 2348,
        "gra": 2349,
        "mc": 2350,
        "ny": 2351,
        "xF": 2352,
        "xb": 2353,
        "yx": 2354,
        "yy": 2355,
        "zx": 2356,
        "{(-": 2357,
        "|)\\": 2358,
        "}:": 2359,
        "Ãł": 2360,
        "Ġ)^{\\": 2361,
        "Ġ144": 2362,
        "Ġ1250": 2363,
        "fter": 2364,
        "Ġac": 2365,
        "}{{{\\": 2366,
        "Ġ380": 2367,
        "Ġ49": 2368,
        "ĠMP": 2369,
        "ĠNP": 2370,
        "ĠBCD": 2371,
        "ĠSN": 2372,
        "ĠSh": 2373,
        "ĠSSS": 2374,
        "Ġ].\\": 2375,
        "ĠCC": 2376,
        "ĠDC": 2377,
        "ĠDM": 2378,
        "Ġ600": 2379,
        "Ġ6840": 2380,
        "ĠKC": 2381,
        "}}}}{": 2382,
        "}}}=\\": 2383,
        "}}}^": 2384,
        "}}=(": 2385,
        ")^+}": 2386,
        "ĠOP": 2387,
        "ĠOMM": 2388,
        "2023": 2389,
        "}=[-": 2390,
        "2012": 2391,
        "2013": 2392,
        "ABI": 2393,
        "};+": 2394,
        "middle": 2395,
        "):{(": 2396,
        "167": 2397,
        "1635": 2398,
        "1512": 2399,
        "131": 2400,
        "]{-": 2401,
        "1440": 2402,
        "}}\\\\": 2403,
        "189": 2404,
        "{{(": 2405,
        "})}^{": 2406,
        "323": 2407,
        "191": 2408,
        ")...\\": 2409,
        ":\\;": 2410,
        "403": 2411,
        "4039": 2412,
        "233": 2413,
        "235": 2414,
        "}{({": 2415,
        ")}{{(": 2416,
        "},\\,\\": 2417,
        "arccos": 2418,
        "283": 2419,
        "ABCDMNP": 2420,
        "333": 2421,
        "7500": 2422,
        "90725": 2423,
        "'''\\": 2424,
        "370": 2425,
        "BDA": 2426,
        "BDC": 2427,
        "'))=": 2428,
        "'))=\\": 2429,
        "384": 2430,
        "2001": 2431,
        "2007": 2432,
        "\\;(": 2433,
        ")}\\:\\": 2434,
        "âĢĻ)": 2435,
        "570": 2436,
        "676": 2437,
        "SNN": 2438,
        "777": 2439,
        "^+}{\\": 2440,
        "Ġ\\%/": 2441,
        "769": 2442,
        "AHB": 2443,
        ",\\,\\,\\": 2444,
        "}^*\\": 2445,
        "10640": 2446,
        "54527": 2447,
        "}\\!\\!\\!": 2448,
        "(*)\\": 2449,
        "SCMNKL": 2450,
        "grave": 2451,
        "90725500": 2452,
        "ae": 2453,
        "after": 2454,
        "bgroup": 2455,
        "egroup": 2456,
        "else": 2457,
        "nce": 2458,
        "ndown": 2459,
        "led": 2460,
        "less": 2461,
        "sqsupseteq": 2462,
        "intop": 2463,
        "super": 2464,
        "varLambda": 2465,
        "bigcirc": 2466,
        "textsuper": 2467,
        "cance": 2468,
        "circled": 2469,
        "rightharpoondown": 2470,
        "aftergroup": 2471,
        "textsuperscript": 2472,
        "cancel": 2473,
        "ftarrow": 2474,
        "operatornamewith": 2475,
        "textcircled": 2476,
        "normalsize": 2477,
        "operatornamewithlimits": 2478,
        "!}{\\": 2479,
        "&<": 2480,
        "&\\": 2481,
        "')\\": 2482,
        "'}^": 2483,
        "')=\\": 2484,
        "''=\\": 2485,
        "'|=": 2486,
        "'}}=": 2487,
        "))=-\\": 2488,
        ")'''": 2489,
        ")!\\": 2490,
        "*}": 2491,
        "-{{\\": 2492,
        "-...": 2493,
        ".\\\\": 2494,
        ".;\\": 2495,
        "023": 2496,
        "1100": 2497,
        "213": 2498,
        "224": 2499,
        "221": 2500,
        "236": 2501,
        "229": 2502,
        "228": 2503,
        "2200": 2504,
        "327": 2505,
        "334": 2506,
        "390": 2507,
        "416": 2508,
        "425": 2509,
        "423": 2510,
        "448": 2511,
        "462": 2512,
        "4272": 2513,
        "560": 2514,
        "550": 2515,
        "554": 2516,
        "597": 2517,
        "615": 2518,
        "618": 2519,
        "630": 2520,
        "640": 2521,
        "650": 2522,
        "697": 2523,
        "735": 2524,
        "793": 2525,
        "810": 2526,
        "808": 2527,
        "875": 2528,
        "841": 2529,
        "9000": 2530,
        "926": 2531,
        ":+\\": 2532,
        ":(\\": 2533,
        "<(": 2534,
        "={-": 2535,
        "Ax": 2536,
        "Bar": 2537,
        "CF": 2538,
        "CH": 2539,
        "CMN": 2540,
        "DM": 2541,
        "DMN": 2542,
        "EG": 2543,
        "EOF": 2544,
        "GA": 2545,
        "HM": 2546,
        "HBC": 2547,
        "ID": 2548,
        "JC": 2549,
        "KA": 2550,
        "ME": 2551,
        "MAC": 2552,
        "MCD": 2553,
        "SQ": 2554,
        "SMN": 2555,
        "SMC": 2556,
        "XYZ": 2557,
        "\\,\\,(": 2558,
        "].\\": 2559,
        "aab": 2560,
        "bch": 2561,
        "kh": 2562,
        "nN": 2563,
        "nm": 2564,
        "qx": 2565,
        "swarrow": 2566,
        "|}=": 2567,
        "}),": 2568,
        "}'\\": 2569,
        "})^{\\": 2570,
        "}|+|": 2571,
        "}|=|": 2572,
        "~(\\": 2573,
        "Ġal": 2574,
        "Ġ}:\\": 2575,
        "Ġ^{\\": 2576,
        "Ġ)}}": 2577,
        "Ġ(*)": 2578,
        "Ġ+|": 2579,
        "Ġxdx": 2580,
        "}{{(": 2581,
        "Ġ31": 2582,
        "Ġ33": 2583,
        "Ġ351": 2584,
        "Ġ47": 2585,
        "ĠABD": 2586,
        "Ġ\\;(": 2587,
        "ĠMD": 2588,
        "Ġuv": 2589,
        "ĠRa": 2590,
        "ĠSO": 2591,
        "Ġ]}": 2592,
        "{\\{": 2593,
        "ĠDD": 2594,
        "ĠDO": 2595,
        "ĠhR": 2596,
        "Ġ55": 2597,
        "Ġ520": 2598,
        "}\\:(\\": 2599,
        "lll": 2600,
        "Ġ;-\\": 2601,
        "Ġ75": 2602,
        "}}\"": 2603,
        "}}(\\": 2604,
        "}}+(": 2605,
        "Ġ900": 2606,
        "\\{(": 2607,
        "{\\,\\": 2608,
        "203": 2609,
        "2030": 2610,
        "2008": 2611,
        "}={\\": 2612,
        "1021": 2613,
        "1023": 2614,
        "1034": 2615,
        "1037": 2616,
        "1245": 2617,
        "12304": 2618,
        "ABO": 2619,
        "ABS": 2620,
        "ABMN": 2621,
        "ABNM": 2622,
        "ABKD": 2623,
        "006": 2624,
        "16000": 2625,
        ",\\:": 2626,
        "1313": 2627,
        "1372": 2628,
        "1344": 2629,
        "251": 2630,
        ")+(\\": 2631,
        ";\\;\\": 2632,
        "1458": 2633,
        "}((": 2634,
        "}}\\,": 2635,
        "181": 2636,
        "172": 2637,
        "179": 2638,
        "1712304": 2639,
        "BCM": 2640,
        "273": 2641,
        "244": 2642,
        "ABCM": 2643,
        "ABCMNC": 2644,
        "]}[": 2645,
        "})}": 2646,
        "SAI": 2647,
        "SAM": 2648,
        "322": 2649,
        "326": 2650,
        "328": 2651,
        "1968": 2652,
        ")...": 2653,
        "MNE": 2654,
        "},-": 2655,
        "},~": 2656,
        "361": 2657,
        "363": 2658,
        "365": 2659,
        "368": 2660,
        "3600": 2661,
        "|+|\\": 2662,
        "1001": 2663,
        "1006": 2664,
        "6054": 2665,
        "4033": 2666,
        "4037": 2667,
        "4096": 2668,
        "261": 2669,
        "262": 2670,
        "\\,,": 2671,
        "505": 2672,
        ")>-": 2673,
        "281": 2674,
        "4500": 2675,
        "\\\\&\\": 2676,
        "\\\\&-\\": 2677,
        "481": 2678,
        "642": 2679,
        ")}^{{": 2680,
        "MBKD": 2681,
        "\\%.": 2682,
        "'')^": 2683,
        "'''=\\": 2684,
        "'''=": 2685,
        "'''=-\\": 2686,
        "1258": 2687,
        "6561": 2688,
        "397": 2689,
        "BDD": 2690,
        "Ġ}_{{{": 2691,
        "5436": 2692,
        "12029": 2693,
        "8090": 2694,
        "=\\{-\\": 2695,
        ");~": 2696,
        "EFGH": 2697,
        "|=|(": 2698,
        "\\;(\\": 2699,
        "4300": 2700,
        "999": 2701,
        "SDA": 2702,
        "SDC": 2703,
        "),\\,\\": 2704,
        "578": 2705,
        "}>{": 2706,
        "ĠĠĠ": 2707,
        "666": 2708,
        "Ġ^{-\\": 2709,
        "}\\,{\\": 2710,
        "91125": 2711,
        "\\!\\!\\!\\!\\!,": 2712,
        "11951": 2713,
        "}}+{{(": 2714,
        "AMND": 2715,
        "Ġ...,": 2716,
        "AIB": 2717,
        "':\\;": 2718,
        "&\\!\\!\\!\\!=&\\!\\!\\!\\!-": 2719,
        "41212029": 2720,
        "}\\!\\!\\!\\!\\!\\!,": 2721,
        "59049": 2722,
        "thicksim": 2723,
        ")^-}": 2724,
        "},...,\\": 2725,
        "}\\!\\!\\!\\!,": 2726,
        "lesssim": 2727,
        "ddag": 2728,
        "vrule": 2729,
        "mathnormal": 2730,
        "varGamma": 2731,
        "Bigm": 2732,
        "Da": 2733,
        "cl": 2734,
        "fbox": 2735,
        "vi": 2736,
        "vDa": 2737,
        "wr": 2738,
        "Ġin": 2739,
        "barwedge": 2740,
        "ĠvÃł": 2741,
        "varPi": 2742,
        "beth": 2743,
        "displaylimits": 2744,
        "vDash": 2745,
        "%)": 2746,
        "'-\\": 2747,
        "'}}": 2748,
        "'},": 2749,
        "((": 2750,
        "((\\": 2751,
        "({{": 2752,
        ")!": 2753,
        ")[": 2754,
        ")}=(-": 2755,
        "*}}": 2756,
        "+[": 2757,
        ",{": 2758,
        ".{{": 2759,
        "016": 2760,
        "025": 2761,
        "1201": 2762,
        "214": 2763,
        "218": 2764,
        "227": 2765,
        "226": 2766,
        "2250": 2767,
        "2304": 2768,
        "2187": 2769,
        "312": 2770,
        "314": 2771,
        "318": 2772,
        "321": 2773,
        "319": 2774,
        "3125": 2775,
        "3200": 2776,
        "415": 2777,
        "413": 2778,
        "424": 2779,
        "421": 2780,
        "460": 2781,
        "435": 2782,
        "445": 2783,
        "464": 2784,
        "463": 2785,
        "467": 2786,
        "525": 2787,
        "527": 2788,
        "524": 2789,
        "530": 2790,
        "526": 2791,
        "528": 2792,
        "533": 2793,
        "565": 2794,
        "580": 2795,
        "553": 2796,
        "599": 2797,
        "621": 2798,
        "636": 2799,
        "665": 2800,
        "718": 2801,
        "730": 2802,
        "708": 2803,
        "798": 2804,
        "820": 2805,
        "816": 2806,
        "817": 2807,
        "8000": 2808,
        "868": 2809,
        "862": 2810,
        "81000": 2811,
        "878": 2812,
        "925": 2813,
        "990": 2814,
        "947": 2815,
        "985": 2816,
        ";(\\": 2817,
        ";{{": 2818,
        "AR": 2819,
        "BO": 2820,
        "BQ": 2821,
        "Bx": 2822,
        "By": 2823,
        "BAA": 2824,
        "BMNP": 2825,
        "BOC": 2826,
        "CI": 2827,
        "CAD": 2828,
        "COA": 2829,
        "CMNP": 2830,
        "DF": 2831,
        "Di": 2832,
        "DEF": 2833,
        "EB": 2834,
        "EM": 2835,
        "EN": 2836,
        "EHK": 2837,
        "GT": 2838,
        "HN": 2839,
        "IN": 2840,
        "IS": 2841,
        "IOM": 2842,
        "JA": 2843,
        "JK": 2844,
        "KM": 2845,
        "KN": 2846,
        "LAR": 2847,
        "MF": 2848,
        "MJ": 2849,
        "NF": 2850,
        "NQ": 2851,
        "SF": 2852,
        "SG": 2853,
        "XA": 2854,
        "]+": 2855,
        "]>": 2856,
        "]^{\\": 2857,
        "an": 2858,
        "av": 2859,
        "bg": 2860,
        "bxy": 2861,
        "do": 2862,
        "hz": 2863,
        "iy": 2864,
        "mf": 2865,
        "nr": 2866,
        "nnu": 2867,
        "px": 2868,
        "rh": 2869,
        "vdt": 2870,
        "xz": 2871,
        "zy": 2872,
        "zz": 2873,
        "|)-": 2874,
        "|-(": 2875,
        "|}{|": 2876,
        "}|\\": 2877,
        "Â°": 2878,
        "Ġ'(": 2879,
        "Ġ},": 2880,
        "Ġ}=": 2881,
        "Ġ}}={{": 2882,
        "Ġ^{-": 2883,
        "Ġ29": 2884,
        "Ġ256": 2885,
        "Ġ148": 2886,
        "Ġ156": 2887,
        "Ġ=(-": 2888,
        "Ġ-{": 2889,
        "Ġ-|": 2890,
        "mannu": 2891,
        "Ġ,\\": 2892,
        "meral": 2893,
        "ĠaR": 2894,
        "Ġaz": 2895,
        "Ġmy": 2896,
        "Ġ39": 2897,
        "Ġcd": 2898,
        "Ġ&=\\": 2899,
        "Ġ43": 2900,
        "Ġ4000": 2901,
        "Ġ|+": 2902,
        "ĠAE": 2903,
        "Ġbd": 2904,
        "ĠMQ": 2905,
        "ĠNNN": 2906,
        "ngmin": 2907,
        "ngvi": 2908,
        "ĠSa": 2909,
        "{\\{-": 2910,
        "ĠCH": 2911,
        "ĠCI": 2912,
        "ĠCP": 2913,
        "ĠDB": 2914,
        "Ġ53": 2915,
        "Ġ56": 2916,
        "ĠGI": 2917,
        "Ġ63": 2918,
        "Ġ65": 2919,
        "Ġ66": 2920,
        "}\\;": 2921,
        "^{+": 2922,
        "^{^{-\\": 2923,
        "^{*}}": 2924,
        "bigodot": 2925,
        "_{_{\\": 2926,
        "Ġ\\{-\\": 2927,
        "Ġ77": 2928,
        "Ġ79": 2929,
        ")\\!": 2930,
        "}}:": 2931,
        "}}}-": 2932,
        "}};+\\": 2933,
        "}}}}\\": 2934,
        "}}},": 2935,
        "}}},\\": 2936,
        "}}-(": 2937,
        "Ġ99": 2938,
        "}}{{{": 2939,
        "ĠOAB": 2940,
        "ĠOBC": 2941,
        "Ġ>-\\": 2942,
        "202": 2943,
        "2032": 2944,
        "20000": 2945,
        "2040": 2946,
        "2029": 2947,
        "2028": 2948,
        "2034": 2949,
        "2039": 2950,
        "2042": 2951,
        "}=|": 2952,
        ")={{": 2953,
        "1011": 2954,
        "1018": 2955,
        "1017": 2956,
        "1080": 2957,
        "}+|": 2958,
        "}+{{": 2959,
        "}+..": 2960,
        "}+({": 2961,
        "}^{+}": 2962,
        "=-|": 2963,
        "1280": 2964,
        "1272": 2965,
        "ABF": 2966,
        "ABH": 2967,
        "ABEF": 2968,
        "ABND": 2969,
        "};{": 2970,
        "):{\\": 2971,
        "166": 2972,
        "1640": 2973,
        "1680": 2974,
        "1610640": 2975,
        "'(-\\": 2976,
        "151": 2977,
        "157": 2978,
        "15625": 2979,
        ",\\;\\": 2980,
        ",\\,\\,": 2981,
        "1326": 2982,
        "),~(": 2983,
        "259": 2984,
        "2520": 2985,
        "2565": 2986,
        "2593": 2987,
        "2592": 2988,
        "142": 2989,
        "182": 2990,
        "1800": 2991,
        "}.{{": 2992,
        "173": 2993,
        "1790": 2994,
        "BCB": 2995,
        "BCN": 2996,
        "276": 2997,
        "2761": 2998,
        "2707": 2999,
        ")-(\\": 3000,
        "241": 3001,
        "247": 3002,
        "24000": 3003,
        "ABCA": 3004,
        "302": 3005,
        "306": 3006,
        "3069": 3007,
        "'={": 3008,
        "219": 3009,
        "})}^": 3010,
        "})}{\\": 3011,
        ")}'=": 3012,
        "3280": 3013,
        "193": 3014,
        "194": 3015,
        "197": 3016,
        "198": 3017,
        "1945": 3018,
        "1998": 3019,
        "1987": 3020,
        "MND": 3021,
        "MNCD": 3022,
        "axy": 3023,
        "},(": 3024,
        "},-\\": 3025,
        "}&\\": 3026,
        "1007": 3027,
        "602": 3028,
        "604": 3029,
        "608": 3030,
        "6053": 3031,
        "6051": 3032,
        "4032": 3033,
        "4042": 3034,
        "4068": 3035,
        "264": 3036,
        "266": 3037,
        "267": 3038,
        "ADM": 3039,
        "SBI": 3040,
        "231": 3041,
        "237": 3042,
        "SCI": 3043,
        "Ġ2022": 3044,
        "\\,(\\": 3045,
        "5040": 3046,
        "5045": 3047,
        "292": 3048,
        "296": 3049,
        "353": 3050,
        "355": 3051,
        "356": 3052,
        "357": 3053,
        "359": 3054,
        "287": 3055,
        "2800": 3056,
        "453": 3057,
        "456": 3058,
        "459": 3059,
        "347": 3060,
        "chngmin": 3061,
        "ABCDE": 3062,
        "4800": 3063,
        "643": 3064,
        "331": 3065,
        ")}^{-": 3066,
        ")}^{-\\": 3067,
        "MBND": 3068,
        "\\!=\\": 3069,
        "CDA": 3070,
        "CDE": 3071,
        "CDEF": 3072,
        "496": 3073,
        "4999": 3074,
        "}}={{\\": 3075,
        "656": 3076,
        "391": 3077,
        "395": 3078,
        "399": 3079,
        "3999": 3080,
        "547": 3081,
        "MCA": 3082,
        "Ġ_{[": 3083,
        "...+": 3084,
        "AMD": 3085,
        "',(": 3086,
        "382": 3087,
        "966": 3088,
        "|-|\\": 3089,
        "Ġ=-{": 3090,
        "2005": 3091,
        ");(-": 3092,
        "567": 3093,
        "EFG": 3094,
        "443": 3095,
        "446": 3096,
        "4324": 3097,
        "470": 3098,
        "477": 3099,
        "472761": 3100,
        "685": 3101,
        "689": 3102,
        "âĢĻ\\": 3103,
        "={(\\": 3104,
        "50000": 3105,
        "571": 3106,
        "574": 3107,
        "5750": 3108,
        "673": 3109,
        "674": 3110,
        "6720": 3111,
        "6666": 3112,
        "776": 3113,
        "\\,\\%": 3114,
        "\\,\\,\\,\\": 3115,
        ")]+\\": 3116,
        "NNNS": 3117,
        "983": 3118,
        "984": 3119,
        "584": 3120,
        "),\\,(": 3121,
        "3003": 3122,
        "romannu": 3123,
        "SIF": 3124,
        "Ozx": 3125,
        "1127": 3126,
        "1152": 3127,
        "ĠOyz": 3128,
        "APR": 3129,
        "``\\": 3130,
        "=&-": 3131,
        "29064": 3132,
        "(*)": 3133,
        "|,|": 3134,
        "Diamond": 3135,
        "LARGE": 3136,
        "270725": 3137,
        "chngminh": 3138,
        "romannumeral": 3139,
        "--": 3140,
        "518": 3141,
        "bint": 3142,
        "gre": 3143,
        "nrightarrow": 3144,
        "nleftrightarrow": 3145,
        "rn": 3146,
        "rsim": 3147,
        "rner": 3148,
        "Ġtcl": 3149,
        "ĠSAC": 3150,
        "ater": 3151,
        "varPhi": 3152,
        "corner": 3153,
        "linebreak": 3154,
        "textgre": 3155,
        "nolinebreak": 3156,
        "Leftarrow": 3157,
        "boxed": 3158,
        "gtrsim": 3159,
        "bintrn": 3160,
        "textgreater": 3161,
        "mmode": 3162,
        "rl": 3163,
        "ub": 3164,
        "Ġ\\[": 3165,
        "Ġ\\]": 3166,
        "lefteq": 3167,
        "varkappa": 3168,
        "Biggm": 3169,
        "negthick": 3170,
        "ifmmode": 3171,
        "lefteqn": 3172,
        "negthickspace": 3173,
        "!=": 3174,
        "!}}": 3175,
        "!}+\\": 3176,
        "\"=\\": 3177,
        "\"-\\": 3178,
        "\"+\\": 3179,
        "\"=-\\": 3180,
        "&<-": 3181,
        "'{": 3182,
        "'):": 3183,
        "',\\": 3184,
        "'},\\": 3185,
        "'}.\\": 3186,
        "',~": 3187,
        "'|=|": 3188,
        "',\\;": 3189,
        ")(-": 3190,
        ");\\": 3191,
        ")]}": 3192,
        "))}": 3193,
        ")|+": 3194,
        "))=-": 3195,
        ")}.\\": 3196,
        ")}}{(": 3197,
        ")!}{(": 3198,
        "+(-": 3199,
        ",+": 3200,
        "-~": 3201,
        "-{|": 3202,
        ".,": 3203,
        "028": 3204,
        "048": 3205,
        "073": 3206,
        "1125": 3207,
        "2256": 3208,
        "3360": 3209,
        "32000": 3210,
        "3240": 3211,
        "3141": 3212,
        "410": 3213,
        "418": 3214,
        "429": 3215,
        "422": 3216,
        "475": 3217,
        "465": 3218,
        "437": 3219,
        "4120": 3220,
        "472": 3221,
        "510": 3222,
        "511": 3223,
        "514": 3224,
        "535": 3225,
        "572": 3226,
        "552": 3227,
        "5180": 3228,
        "5275": 3229,
        "613": 3230,
        "617": 3231,
        "628": 3232,
        "664": 3233,
        "639": 3234,
        "663": 3235,
        "610000": 3236,
        "715": 3237,
        "711": 3238,
        "717": 3239,
        "736": 3240,
        "760": 3241,
        "790": 3242,
        "765": 3243,
        "737": 3244,
        "780": 3245,
        "738": 3246,
        "761": 3247,
        "797": 3248,
        "813": 3249,
        "818": 3250,
        "832": 3251,
        "860": 3252,
        "864": 3253,
        "872": 3254,
        "856": 3255,
        "861": 3256,
        "899": 3257,
        "895": 3258,
        "882": 3259,
        "8666": 3260,
        "910": 3261,
        "911": 3262,
        "914": 3263,
        "918": 3264,
        "936": 3265,
        "935": 3266,
        "922": 3267,
        "933": 3268,
        "980": 3269,
        "972": 3270,
        "996": 3271,
        "952": 3272,
        ";|": 3273,
        "=~\\": 3274,
        ">{\\": 3275,
        ">(\\": 3276,
        "AQ": 3277,
        "AS": 3278,
        "AX": 3279,
        "AABC": 3280,
        "AOC": 3281,
        "AIJ": 3282,
        "AOO": 3283,
        "BY": 3284,
        "BSA": 3285,
        "BPQ": 3286,
        "CG": 3287,
        "CJ": 3288,
        "CK": 3289,
        "CS": 3290,
        "Cy": 3291,
        "CMA": 3292,
        "CSD": 3293,
        "DG": 3294,
        "DH": 3295,
        "Dz": 3296,
        "DABC": 3297,
        "DAC": 3298,
        "DSA": 3299,
        "DAA": 3300,
        "DCA": 3301,
        "EA": 3302,
        "EH": 3303,
        "EK": 3304,
        "EBC": 3305,
        "FA": 3306,
        "FD": 3307,
        "FKM": 3308,
        "GI": 3309,
        "GK": 3310,
        "GBC": 3311,
        "HI": 3312,
        "HAB": 3313,
        "IG": 3314,
        "IP": 3315,
        "IBD": 3316,
        "IFE": 3317,
        "KH": 3318,
        "KQ": 3319,
        "KMN": 3320,
        "MO": 3321,
        "Mm": 3322,
        "Mz": 3323,
        "MEF": 3324,
        "MBCD": 3325,
        "MOO": 3326,
        "MBCC": 3327,
        "NE": 3328,
        "NH": 3329,
        "NAB": 3330,
        "OK": 3331,
        "OEF": 3332,
        "OIA": 3333,
        "QA": 3334,
        "QP": 3335,
        "RP": 3336,
        "RS": 3337,
        "Sx": 3338,
        "SABCD": 3339,
        "SMA": 3340,
        "SMNP": 3341,
        "SEF": 3342,
        "SSN": 3343,
        "SIA": 3344,
        "XB": 3345,
        "\\,\\,": 3346,
        "]?": 3347,
        "]}^{": 3348,
        "]\\,": 3349,
        "]'\\": 3350,
        "aS": 3351,
        "aq": 3352,
        "au": 3353,
        "bn": 3354,
        "cf": 3355,
        "ct": 3356,
        "cy": 3357,
        "cen": 3358,
        "gam": 3359,
        "ib": 3360,
        "kF": 3361,
        "kg": 3362,
        "kt": 3363,
        "lr": 3364,
        "nS": 3365,
        "nV": 3366,
        "nb": 3367,
        "nh": 3368,
        "nz": 3369,
        "os": 3370,
        "sai": 3371,
        "uge": 3372,
        "xx": 3373,
        "xln": 3374,
        "xOz": 3375,
        "|}=\\": 3376,
        "|}^{": 3377,
        "|}+\\": 3378,
        "|)+": 3379,
        "|{{": 3380,
        "|}-(": 3381,
        "}]}": 3382,
        "})=-\\": 3383,
        "}')": 3384,
        "~-~": 3385,
        "´ng": 3386,
        "Ã´ng": 3387,
        "Ġ}+": 3388,
        "Ġ}}=\\": 3389,
        "Ġ}=-": 3390,
        "Ġ}}+\\": 3391,
        "Ġ}{{": 3392,
        "Ġ}={": 3393,
        "Ġ{[": 3394,
        "Ġ216": 3395,
        "Ġ225": 3396,
        "Ġ230": 3397,
        "Ġ234": 3398,
        "Ġ233": 3399,
        "Ġ288": 3400,
        "Ġ)-": 3401,
        "Ġ)<": 3402,
        "Ġ)}{": 3403,
        "Ġ({{": 3404,
        "Ġ108": 3405,
        "Ġ135": 3406,
        "Ġ1125": 3407,
        "Ġ180": 3408,
        "Ġ174": 3409,
        "Ġ=|": 3410,
        "Ġ=~": 3411,
        "Ġ048": 3412,
        "Ġxe": 3413,
        "inde": 3414,
        "rightrightarrow": 3415,
        "rightleftarrow": 3416,
        "Ġny": 3417,
        "Ġ.{{": 3418,
        "Ġay": 3419,
        "Ġabc": 3420,
        "Ġte": 3421,
        "Ġmi": 3422,
        "}{[": 3423,
        "}{-\\": 3424,
        "}{|\\": 3425,
        "Ġ320": 3426,
        "Ġ300": 3427,
        "Ġ339": 3428,
        "Ġ338": 3429,
        "Ġka": 3430,
        "Ġcos": 3431,
        "Ġsin": 3432,
        "Ġ&=-": 3433,
        "Ġ41": 3434,
        "Ġ46": 3435,
        "Ġ4400": 3436,
        "Ġ|-": 3437,
        "Ġ|.": 3438,
        "ĠAI": 3439,
        "ĠAK": 3440,
        "ĠAM": 3441,
        "ĠAHK": 3442,
        "Ġ~(": 3443,
        "Ġyy": 3444,
        "ĠME": 3445,
        "ĠMAB": 3446,
        "ĠMhz": 3447,
        "ĠND": 3448,
        "ĠNS": 3449,
        "ĠBAC": 3450,
        "ĠBAD": 3451,
        "ĠBHC": 3452,
        "ĠSF": 3453,
        "ĠSI": 3454,
        "ĠSK": 3455,
        "ĠSAD": 3456,
        "ĠSCD": 3457,
        "ĠSNN": 3458,
        "ĠSNS": 3459,
        "ĠCB": 3460,
        "ĠCE": 3461,
        "ĠDA": 3462,
        "ĠDE": 3463,
        "ĠPC": 3464,
        "Ġ52": 3465,
        "Ġ590": 3466,
        "Ġ5400": 3467,
        "Ġ675": 3468,
        "Ġ672": 3469,
        "Ġ656": 3470,
        "Ġ687": 3471,
        "^{^": 3472,
        "^{{": 3473,
        "^{^{": 3474,
        "Ġ86": 3475,
        "Ġ800": 3476,
        "Ġ850": 3477,
        "cosx": 3478,
        "Ġ70": 3479,
        "Ġ700": 3480,
        "Ġ728": 3481,
        "Ġ<-\\": 3482,
        "Ġ:\\,": 3483,
        "}}[": 3484,
        "}}=-\\": 3485,
        "}}}.": 3486,
        "}}}{(": 3487,
        "}},\\,": 3488,
        "}}}.\\": 3489,
        "Ġ95": 3490,
        "\\{{\\": 3491,
        "\\{{-": 3492,
        "}}{[": 3493,
        "}}{|": 3494,
        "}}{(\\": 3495,
        "ĠOA": 3496,
        "{\\,(": 3497,
        "206": 3498,
        "209": 3499,
        "2036": 3500,
        "2026": 3501,
        "2031": 3502,
        "2041": 3503,
        "2047": 3504,
        "2099": 3505,
        "2097": 3506,
        "2098": 3507,
        "2046": 3508,
        ")=[": 3509,
        "1020": 3510,
        "1016": 3511,
        "1025": 3512,
        "}^{*}": 3513,
        "\\})": 3514,
        "=-(": 3515,
        "}^+": 3516,
        "\\\\(": 3517,
        "\\\\-": 3518,
        "1236": 3519,
        "1260": 3520,
        "1250": 3521,
        "1248": 3522,
        "1233": 3523,
        "1275": 3524,
        "1296": 3525,
        "1285": 3526,
        "1271": 3527,
        "ABE": 3528,
        "ABJ": 3529,
        "ABFE": 3530,
        "};}\\": 3531,
        "}-{{": 3532,
        "):{": 3533,
        "159": 3534,
        "1516": 3535,
        "1513": 3536,
        "15000": 3537,
        "1560": 3538,
        "1554": 3539,
        "1595": 3540,
        "1325": 3541,
        "1360": 3542,
        "1323": 3543,
        "1301": 3544,
        "),(-": 3545,
        "1175": 3546,
        "1180": 3547,
        "1174": 3548,
        "255": 3549,
        ")+[": 3550,
        ")+{\\": 3551,
        ")+{{\\": 3552,
        ")+...+": 3553,
        ")^{^{\\": 3554,
        ")^{^{-\\": 3555,
        ";\\,\\,": 3556,
        "]{{\\": 3557,
        "]{{{": 3558,
        "1400": 3559,
        "1416": 3560,
        "1417": 3561,
        "1433": 3562,
        "14542": 3563,
        "{,}{": 3564,
        "}({": 3565,
        "}((\\": 3566,
        "183": 3567,
        "186": 3568,
        "187500": 3569,
        "178": 3570,
        "1710": 3571,
        "1700": 3572,
        "1752": 3573,
        "1753": 3574,
        "BCO": 3575,
        "274": 3576,
        "279": 3577,
        "}_{{": 3578,
        ")-{": 3579,
        ")-(-": 3580,
        "2425": 3581,
        "ABCC": 3582,
        "ABCE": 3583,
        "ACA": 3584,
        "ACE": 3585,
        "ACG": 3586,
        "ACH": 3587,
        "ACCA": 3588,
        "301": 3589,
        "308": 3590,
        "3020": 3591,
        "2197": 3592,
        "]}|": 3593,
        "})(": 3594,
        "});": 3595,
        "})]": 3596,
        "})+(": 3597,
        "};\\;\\": 3598,
        "SAO": 3599,
        ")},": 3600,
        "3215": 3601,
        "1920": 3602,
        "1959": 3603,
        "Ġ')": 3604,
        ").}": 3605,
        "MNA": 3606,
        "MNB": 3607,
        "MNEF": 3608,
        "},+\\": 3609,
        ":\\!": 3610,
        ":\\,\\": 3611,
        "1003": 3612,
        "1005": 3613,
        "10086": 3614,
        "0001": 3615,
        "605": 3616,
        "609": 3617,
        "605000": 3618,
        "401": 3619,
        "407": 3620,
        "408": 3621,
        "4016": 3622,
        "4015": 3623,
        "4026": 3624,
        "4062": 3625,
        "263": 3626,
        "2614": 3627,
        "ADB": 3628,
        "ADE": 3629,
        "SBE": 3630,
        "2380": 3631,
        "}{({{": 3632,
        "Ġ2015": 3633,
        "Ġ2048": 3634,
        "\\,}": 3635,
        "501": 3636,
        "506": 3637,
        "509": 3638,
        "5050": 3639,
        "5054": 3640,
        "},\\:": 3641,
        "291": 3642,
        "294": 3643,
        "299": 3644,
        "...\\": 3645,
        "Ġ1010": 3646,
        "352": 3647,
        "358": 3648,
        "35000": 3649,
        "282": 3650,
        "2880": 3651,
        "451": 3652,
        "45000": 3653,
        ",\\,{{\\": 3654,
        "341": 3655,
        "349": 3656,
        "3450": 3657,
        "3449": 3658,
        "\\\\&-": 3659,
        "^{-}}": 3660,
        "^{-})=": 3661,
        "2224": 3662,
        "22100": 3663,
        "483": 3664,
        "487": 3665,
        "_{[-\\": 3666,
        "}}+{": 3667,
        "}}+...": 3668,
        "337": 3669,
        "33000": 3670,
        ")}^{^{\\": 3671,
        "MBP": 3672,
        "\\!\\": 3673,
        "\\!:\\!": 3674,
        "MANC": 3675,
        "490": 3676,
        "491": 3677,
        "492": 3678,
        "495": 3679,
        "756": 3680,
        "758": 3681,
        "907": 3682,
        "9067": 3683,
        "textsl": 3684,
        "''-\\": 3685,
        "''+\\": 3686,
        "1256": 3687,
        "}}={{": 3688,
        "65000": 3689,
        "394": 3690,
        "396": 3691,
        "398": 3692,
        "39360": 3693,
        "371": 3694,
        "373": 3695,
        "BDF": 3696,
        "Ġ}_{_{": 3697,
        "807": 3698,
        "8072": 3699,
        "8068": 3700,
        "8076": 3701,
        "\\{-{\\": 3702,
        "}}-{{": 3703,
        ",~(": 3704,
        "Ġ1610640": 3705,
        "bcd": 3706,
        "383": 3707,
        "961": 3708,
        "969": 3709,
        "96000": 3710,
        "abcd": 3711,
        "2006": 3712,
        "562": 3713,
        "566": 3714,
        "567000": 3715,
        "EFB": 3716,
        "447": 3717,
        "4400": 3718,
        "ĠACC": 3719,
        "471": 3720,
        "686": 3721,
        "687": 3722,
        "688": 3723,
        "687500": 3724,
        "}}}{{{": 3725,
        "9945": 3726,
        "9999": 3727,
        "âĢĻ=\\": 3728,
        "âĢĻ)\\": 3729,
        "={|": 3730,
        "BCDA": 3731,
        "500000": 3732,
        "))}=": 3733,
        "'}{{": 3734,
        "6320": 3735,
        "579": 3736,
        "OCA": 3737,
        "858": 3738,
        "859": 3739,
        "5525": 3740,
        "SNS": 3741,
        "}>(": 3742,
        "}>-\\": 3743,
        ")}=+\\": 3744,
        "1088": 3745,
        "7350": 3746,
        "100000": 3747,
        "669": 3748,
        "}|^{": 3749,
        "^+}\\": 3750,
        "970": 3751,
        "979": 3752,
        ")]^{": 3753,
        "IJC": 3754,
        "988": 3755,
        "98430": 3756,
        "60000": 3757,
        "600000": 3758,
        "76000": 3759,
        "2503": 3760,
        "2160": 3761,
        "^-}{\\": 3762,
        "AHC": 3763,
        "AHM": 3764,
        "886": 3765,
        "3006": 3766,
        "Ġ1005": 3767,
        "Ġ1008": 3768,
        "Ġ187": 3769,
        "Ġ189": 3770,
        "200000": 3771,
        "SHC": 3772,
        "BMPN": 3773,
        "694": 3774,
        "8440": 3775,
        "879": 3776,
        "93000": 3777,
        "Ġ4035": 3778,
        "Ġ4034": 3779,
        "Ġ4096": 3780,
        "94000": 3781,
        "SIC": 3782,
        "SID": 3783,
        "AGC": 3784,
        "AEC": 3785,
        "1156": 3786,
        "}\\\\&(": 3787,
        "APMN": 3788,
        "ĠMNP": 3789,
        "}}<(": 3790,
        "0796": 3791,
        "0797": 3792,
        "147278": 3793,
        "147347": 3794,
        "ĠOxz": 3795,
        "16875": 3796,
        "3157": 3797,
        "5456": 3798,
        ")\\;{\\": 3799,
        "33600": 3800,
        "1551175": 3801,
        "AFD": 3802,
        "BID": 3803,
        "HEQ": 3804,
        ")^-}\\": 3805,
        "14950": 3806,
        "FHN": 3807,
        "5452733": 3808,
        "5452771": 3809,
        "41625": 3810,
        "6972593": 3811,
        "8082": 3812,
        "XYZT": 3813,
        "khÃ´ng": 3814,
        "19683": 3815,
        "5436521": 3816,
        "5436566": 3817,
        "4138": 3818,
        "8788": 3819,
        "Ġ395054": 3820,
        "^{+}}": 3821,
        ")\\!\\!:\\!": 3822,
        "132600": 3823,
        "\\!=\\!": 3824,
        "41208": 3825,
        "lrcorner": 3826,
        "rightrightarrows": 3827,
        "rightleftarrows": 3828,
        "Ġ33935": 3829,
        "118096": 3830,
        "1454226": 3831,
        "Tac": 3832,
        "hm": 3833,
        "hss": 3834,
        "kho": 3835,
        "lm": 3836,
        "mng": 3837,
        "nright": 3838,
        "nleftarrow": 3839,
        "uph": 3840,
        "thmng": 3841,
        "lebarwedge": 3842,
        "deset": 3843,
        "sideset": 3844,
        "ngleftarrow": 3845,
        "hom": 3846,
        "Longleftarrow": 3847,
        "arpoonright": 3848,
        "doub": 3849,
        "bintrnkho": 3850,
        "hms": 3851,
        "lmthmng": 3852,
        "upharpoonright": 3853,
        "doublebarwedge": 3854,
        "bintrnkhong": 3855,
        "Huge": 3856,
        "eright": 3857,
        "hskip": 3858,
        "nwarrow": 3859,
        "pprox": 3860,
        "rk": 3861,
        "rgroup": 3862,
        "wline": 3863,
        "á»": 3864,
        "rapprox": 3865,
        "Ġem": 3866,
        "oteright": 3867,
        "arrayco": 3868,
        "quoteright": 3869,
        "varTheta": 3870,
        "varUpsilon": 3871,
        "newline": 3872,
        "textquoteright": 3873,
        "cite": 3874,
        "updownarrow": 3875,
        "leftrightarrows": 3876,
        "supsetneq": 3877,
        "smallint": 3878,
        "lgroup": 3879,
        "medspace": 3880,
        "gtrapprox": 3881,
        "lsep": 3882,
        "---": 3883,
        "arraycolsep": 3884,
        "!)^": 3885,
        "!+(": 3886,
        "!}}\\": 3887,
        "!-(": 3888,
        "\"=": 3889,
        "\"\\": 3890,
        "%}": 3891,
        "'~": 3892,
        "'}{\\": 3893,
        "'),": 3894,
        "'})": 3895,
        "').": 3896,
        "'.\\": 3897,
        "'|=\\": 3898,
        "',\\,": 3899,
        "'\\\\&": 3900,
        "'}=-": 3901,
        "'-(": 3902,
        "'),(": 3903,
        "'~=~": 3904,
        "(+\\": 3905,
        "((-": 3906,
        "(|\\": 3907,
        "([-": 3908,
        "({{\\": 3909,
        ")~": 3910,
        ")}{-": 3911,
        ")),": 3912,
        ");+\\": 3913,
        "))+": 3914,
        "))^{": 3915,
        ")[\\": 3916,
        "))>": 3917,
        "))}^": 3918,
        "){{\\": 3919,
        ")}}}": 3920,
        "));": 3921,
        ")|=|": 3922,
        ")].": 3923,
        ")}}{{": 3924,
        ")}}}\\": 3925,
        ")~(": 3926,
        ")âĢĻ=": 3927,
        ")!}{\\": 3928,
        "*}\\": 3929,
        "+^": 3930,
        "+~": 3931,
        "+}\\": 3932,
        "+|\\": 3933,
        "+{{": 3934,
        "+^*": 3935,
        ",=": 3936,
        ",|": 3937,
        ",}-\\": 3938,
        "-+": 3939,
        "-[": 3940,
        "-(\\": 3941,
        "-{(": 3942,
        ".-\\": 3943,
        ".{{\\": 3944,
        "/(": 3945,
        "/{{": 3946,
        "010": 3947,
        "060": 3948,
        "050": 3949,
        "029": 3950,
        "022": 3951,
        "075": 3952,
        "065": 3953,
        "039": 3954,
        "072": 3955,
        "041": 3956,
        "038": 3957,
        "044": 3958,
        "047": 3959,
        "051": 3960,
        "067": 3961,
        "077": 3962,
        "074": 3963,
        "095": 3964,
        "058": 3965,
        "046": 3966,
        "091": 3967,
        "059": 3968,
        "0625": 3969,
        "0105": 3970,
        "0188": 3971,
        "11000": 3972,
        "1128": 3973,
        "1150": 3974,
        "1105": 3975,
        "1135": 3976,
        "1165": 3977,
        "1168": 3978,
        "2108": 3979,
        "2150": 3980,
        "22000": 3981,
        "2180": 3982,
        "2106": 3983,
        "2265": 3984,
        "2280": 3985,
        "2293": 3986,
        "310": 3987,
        "335": 3988,
        "381": 3989,
        "3150": 3990,
        "3160": 3991,
        "3135": 3992,
        "3130": 3993,
        "3136": 3994,
        "3190": 3995,
        "3164": 3996,
        "414": 3997,
        "417": 3998,
        "427": 3999,
        "436": 4000,
        "428": 4001,
        "433": 4002,
        "441": 4003,
        "438": 4004,
        "442": 4005,
        "4200": 4006,
        "461": 4007,
        "466": 4008,
        "42000": 4009,
        "41600": 4010,
        "4137": 4011,
        "4369": 4012,
        "4293": 4013,
        "4368": 4014,
        "46666": 4015,
        "515": 4016,
        "517": 4017,
        "532": 4018,
        "534": 4019,
        "522": 4020,
        "539": 4021,
        "5120": 4022,
        "596": 4023,
        "551": 4024,
        "557": 4025,
        "595": 4026,
        "5240": 4027,
        "5184": 4028,
        "51512": 4029,
        "5481": 4030,
        "610": 4031,
        "612": 4032,
        "632": 4033,
        "622": 4034,
        "633": 4035,
        "690": 4036,
        "637": 4037,
        "699": 4038,
        "698": 4039,
        "6150": 4040,
        "6250": 4041,
        "691": 4042,
        "6160": 4043,
        "6642": 4044,
        "696000": 4045,
        "710": 4046,
        "716": 4047,
        "724": 4048,
        "719": 4049,
        "740": 4050,
        "723": 4051,
        "728": 4052,
        "734": 4053,
        "722": 4054,
        "748": 4055,
        "781": 4056,
        "764": 4057,
        "749": 4058,
        "7200": 4059,
        "799": 4060,
        "767": 4061,
        "782": 4062,
        "72000": 4063,
        "794": 4064,
        "792": 4065,
        "7446": 4066,
        "812": 4067,
        "811": 4068,
        "825": 4069,
        "82018": 4070,
        "827": 4071,
        "824": 4072,
        "830": 4073,
        "821": 4074,
        "8100": 4075,
        "826": 4076,
        "850": 4077,
        "829": 4078,
        "835": 4079,
        "845": 4080,
        "834": 4081,
        "848": 4082,
        "881": 4083,
        "833": 4084,
        "890": 4085,
        "854": 4086,
        "896": 4087,
        "851": 4088,
        "885": 4089,
        "873": 4090,
        "866": 4091,
        "897": 4092,
        "8600": 4093,
        "846": 4094,
        "8400": 4095,
        "891": 4096,
        "80000": 4097,
        "920": 4098,
        "915": 4099,
        "924": 4100,
        "932": 4101,
        "9100": 4102,
        "940": 4103,
        "923": 4104,
        "945": 4105,
        "948": 4106,
        "964": 4107,
        "949": 4108,
        "939": 4109,
        "954": 4110,
        "956": 4111,
        "944": 4112,
        "953": 4113,
        "90000": 4114,
        "9135": 4115,
        "9269": 4116,
        ":-": 4117,
        ":{": 4118,
        ":}": 4119,
        ":}\\,": 4120,
        ":~\\": 4121,
        ";;": 4122,
        ";~": 4123,
        ";{\\": 4124,
        ";\\\\": 4125,
        ";...": 4126,
        "<(\\": 4127,
        "<...": 4128,
        "==-": 4129,
        ">(": 4130,
        "AJ": 4131,
        "AT": 4132,
        "Aa": 4133,
        "Ae": 4134,
        "Ay": 4135,
        "AOM": 4136,
        "ASD": 4137,
        "ASO": 4138,
        "AMNPQ": 4139,
        "APQ": 4140,
        "AACC": 4141,
        "AYZ": 4142,
        "BJ": 4143,
        "BS": 4144,
        "Bt": 4145,
        "BSD": 4146,
        "BSO": 4147,
        "BNC": 4148,
        "BHK": 4149,
        "BIH": 4150,
        "BMNC": 4151,
        "BYZ": 4152,
        "CL": 4153,
        "CO": 4154,
        "CQ": 4155,
        "CZ": 4156,
        "Cm": 4157,
        "Cz": 4158,
        "CMB": 4159,
        "CBA": 4160,
        "CIJK": 4161,
        "CHA": 4162,
        "CFG": 4163,
        "COG": 4164,
        "DO": 4165,
        "Ds": 4166,
        "DSB": 4167,
        "DMNP": 4168,
        "DCC": 4169,
        "DIJ": 4170,
        "DBA": 4171,
        "DIC": 4172,
        "DHA": 4173,
        "DGH": 4174,
        "DJK": 4175,
        "EI": 4176,
        "EQ": 4177,
        "ES": 4178,
        "EABC": 4179,
        "EAD": 4180,
        "ECD": 4181,
        "EBD": 4182,
        "EBCD": 4183,
        "EIJ": 4184,
        "FB": 4185,
        "FM": 4186,
        "FO": 4187,
        "FAB": 4188,
        "FAD": 4189,
        "FCD": 4190,
        "FHK": 4191,
        "FIO": 4192,
        "GB": 4193,
        "GC": 4194,
        "GJ": 4195,
        "GN": 4196,
        "Gi": 4197,
        "GAB": 4198,
        "GABC": 4199,
        "GAC": 4200,
        "GMB": 4201,
        "GCD": 4202,
        "GSAC": 4203,
        "GHK": 4204,
        "HO": 4205,
        "HP": 4206,
        "HQ": 4207,
        "Hz": 4208,
        "HMN": 4209,
        "HCA": 4210,
        "HCEF": 4211,
        "IR": 4212,
        "IAC": 4213,
        "IMN": 4214,
        "ICD": 4215,
        "IBCD": 4216,
        "IBA": 4217,
        "ICB": 4218,
        "KC": 4219,
        "KF": 4220,
        "KG": 4221,
        "KJ": 4222,
        "KCD": 4223,
        "LC": 4224,
        "Ma": 4225,
        "Mn": 4226,
        "Mx": 4227,
        "My": 4228,
        "MABC": 4229,
        "Mec": 4230,
        "MOA": 4231,
        "MOB": 4232,
        "MACD": 4233,
        "MABD": 4234,
        "MHK": 4235,
        "MPQ": 4236,
        "MIJK": 4237,
        "MOP": 4238,
        "MABN": 4239,
        "MED": 4240,
        "MOF": 4241,
        "Mhz": 4242,
        "NJ": 4243,
        "NK": 4244,
        "NMD": 4245,
        "NACB": 4246,
        "NPQ": 4247,
        "NOD": 4248,
        "NADM": 4249,
        "OE": 4250,
        "OV": 4251,
        "Or": 4252,
        "OAC": 4253,
        "OABCD": 4254,
        "OMNP": 4255,
        "OBCD": 4256,
        "OACD": 4257,
        "OHC": 4258,
        "PE": 4259,
        "PI": 4260,
        "PS": 4261,
        "Pu": 4262,
        "PAB": 4263,
        "PBCD": 4264,
        "PMNC": 4265,
        "QD": 4266,
        "QN": 4267,
        "QR": 4268,
        "QMN": 4269,
        "QCD": 4270,
        "QMNP": 4271,
        "RB": 4272,
        "RD": 4273,
        "Rh": 4274,
        "SJ": 4275,
        "Sy": 4276,
        "SOA": 4277,
        "SBCD": 4278,
        "SFC": 4279,
        "SFH": 4280,
        "SJC": 4281,
        "Skh": 4282,
        "SJA": 4283,
        "TG": 4284,
        "Tex": 4285,
        "TGG": 4286,
        "TGT": 4287,
        "Vh": 4288,
        "VOV": 4289,
        "XT": 4290,
        "XY": 4291,
        "XZ": 4292,
        "YT": 4293,
        "[|": 4294,
        "\\}=": 4295,
        "\\:\\": 4296,
        "]}}": 4297,
        "]'=\\": 4298,
        "]|=": 4299,
        "]'=": 4300,
        "],\\,": 4301,
        "]}=-": 4302,
        "],~": 4303,
        "]^{-\\": 4304,
        "]+{\\": 4305,
        "^(": 4306,
        "^+\\": 4307,
        "^/(": 4308,
        "_=\\": 4309,
        "aF": 4310,
        "aR": 4311,
        "ao": 4312,
        "aSA": 4313,
        "bm": 4314,
        "bSB": 4315,
        "cng": 4316,
        "cho": 4317,
        "cSC": 4318,
        "cngvi": 4319,
        "dv": 4320,
        "dig": 4321,
        "ef": 4322,
        "ew": 4323,
        "gi": 4324,
        "gime": 4325,
        "hR": 4326,
        "hn": 4327,
        "hr": 4328,
        "hch": 4329,
        "hspace": 4330,
        "ii": 4331,
        "iu": 4332,
        "iw": 4333,
        "ice": 4334,
        "jo": 4335,
        "jun": 4336,
        "ka": 4337,
        "kf": 4338,
        "ky": 4339,
        "kCD": 4340,
        "lz": 4341,
        "ltimes": 4342,
        "mM": 4343,
        "mb": 4344,
        "nB": 4345,
        "nC": 4346,
        "nD": 4347,
        "nn": 4348,
        "nv": 4349,
        "nln": 4350,
        "nleq": 4351,
        "nchngminh": 4352,
        "of": 4353,
        "og": 4354,
        "pc": 4355,
        "pq": 4356,
        "qs": 4357,
        "rx": 4358,
        "sao": 4359,
        "tv": 4360,
        "tx": 4361,
        "tch": 4362,
        "tdt": 4363,
        "tkh": 4364,
        "tOr": 4365,
        "ux": 4366,
        "uy": 4367,
        "xen": 4368,
        "xBC": 4369,
        "xdx": 4370,
        "xOx": 4371,
        "xAy": 4372,
        "ydy": 4373,
        "yOz": 4374,
        "zi": 4375,
        "{}{{": 4376,
        "{!}": 4377,
        "{:}": 4378,
        "|;": 4379,
        "|(\\": 4380,
        "|)=\\": 4381,
        "|+(": 4382,
        "|[\\": 4383,
        "|^{-": 4384,
        "|}<": 4385,
        "|}}=": 4386,
        "||(": 4387,
        "|)?": 4388,
        "|)-(": 4389,
        "|)|=": 4390,
        "}~": 4391,
        "}):": 4392,
        "}]{": 4393,
        "}'=": 4394,
        "}|+": 4395,
        "}]\\": 4396,
        "})=-": 4397,
        "}''(": 4398,
        "}|-": 4399,
        "}'.": 4400,
        "}!}": 4401,
        "}):\\,": 4402,
        "}~\\": 4403,
        "}~=~": 4404,
        "}|+|\\": 4405,
        "~=\\": 4406,
        "~=~\\": 4407,
        "~+~": 4408,
        "©t": 4409,
        "¬nh": 4410,
        "Ã©t": 4411,
        "Ã¬nh": 4412,
        "Äĳ": 4413,
        "Ġma": 4414,
        "Ġta": 4415,
        "ĠâĢ": 4416,
        "Ġ}-": 4417,
        "Ġ}.": 4418,
        "Ġ}_": 4419,
        "Ġ}}}": 4420,
        "Ġ}}=": 4421,
        "Ġ}\\,": 4422,
        "Ġ}}}}": 4423,
        "Ġ}}{{": 4424,
        "Ġ}}}{{{": 4425,
        "Ġ}}+{{": 4426,
        "Ġ}}.{{": 4427,
        "Ġ}}-{{": 4428,
        "Ġ{{{": 4429,
        "Ġ{\\{-": 4430,
        "Ġ{.}": 4431,
        "Ġ_{(": 4432,
        "Ġ215": 4433,
        "Ġ232": 4434,
        "Ġ240": 4435,
        "Ġ229": 4436,
        "Ġ245": 4437,
        "Ġ244": 4438,
        "Ġ243": 4439,
        "Ġ251": 4440,
        "Ġ282": 4441,
        "Ġ2400": 4442,
        "Ġ2304": 4443,
        "Ġ250000": 4444,
        "Ġ)(": 4445,
        "Ġ)}{\\": 4446,
        "Ġ),\\": 4447,
        "Ġ)}.": 4448,
        "Ġ):\\": 4449,
        "Ġ)>\\": 4450,
        "Ġ({": 4451,
        "Ġ(|": 4452,
        "Ġ({\\": 4453,
        "Ġ(<\\": 4454,
        "rad": 4455,
        "Ġ115": 4456,
        "Ġ118": 4457,
        "Ġ117": 4458,
        "Ġ121": 4459,
        "Ġ1000": 4460,
        "Ġ160": 4461,
        "Ġ128": 4462,
        "Ġ133": 4463,
        "Ġ196": 4464,
        "Ġ1200": 4465,
        "Ġ188": 4466,
        "Ġ=+\\": 4467,
        "Ġ=(\\": 4468,
        "Ġ=(-\\": 4469,
        "Ġ={(": 4470,
        "Ġ-}}": 4471,
        "Ġ,(": 4472,
        "Ġ,\\,": 4473,
        "thcngvi": 4474,
        "Ġ+{\\": 4475,
        "Ġ+}}": 4476,
        "Ġ+...+": 4477,
        "Ġ010": 4478,
        "Ġ022": 4479,
        "Ġ081": 4480,
        "Ġ049": 4481,
        "Ġ007": 4482,
        "mathac": 4483,
        "ĠxOz": 4484,
        "inrel": 4485,
        "mebox": 4486,
        "Ġnb": 4487,
        "Ġni": 4488,
        "Ġnt": 4489,
        "Ġnz": 4490,
        "Ġdt": 4491,
        "Ġdv": 4492,
        "Ġtro": 4493,
        "Ġ\\,\\,(": 4494,
        "Ġmp": 4495,
        "Ġmt": 4496,
        "Ġmz": 4497,
        "ĠmÃ©t": 4498,
        "}{(-": 4499,
        "Ġ37": 4500,
        "Ġ310": 4501,
        "Ġ325": 4502,
        "Ġ327": 4503,
        "Ġ324": 4504,
        "Ġ321": 4505,
        "Ġ336": 4506,
        "Ġ3000": 4507,
        "Ġ323": 4508,
        "Ġ365": 4509,
        "Ġ331": 4510,
        "Ġ368": 4511,
        "Ġ367": 4512,
        "Ġ3600": 4513,
        "Ġ394": 4514,
        "Ġ33280": 4515,
        "Ġkx": 4516,
        "Ġcv": 4517,
        "def": 4518,
        "delim": 4519,
        "Ġ&<": 4520,
        "Ġ&>": 4521,
        "Ġ&=-\\": 4522,
        "Ġ&<-": 4523,
        "Ġ44": 4524,
        "Ġ427": 4525,
        "Ġ432": 4526,
        "Ġ450": 4527,
        "Ġ465": 4528,
        "Ġ4120": 4529,
        "Ġ442": 4530,
        "Ġ486": 4531,
        "Ġ4220": 4532,
        "Ġlr": 4533,
        "Ġlog": 4534,
        "Ġ|(": 4535,
        "Ġ|}": 4536,
        "Ġ|-\\": 4537,
        "Ġ|}=\\": 4538,
        "Ġ|=|": 4539,
        "Ġ|+|": 4540,
        "ĠAMN": 4541,
        "Ġ~(*)": 4542,
        "Ġyi": 4543,
        "Ġyz": 4544,
        "phichngminh": 4545,
        "ĠMF": 4546,
        "ĠMBC": 4547,
        "ĠMCA": 4548,
        "ĠMHz": 4549,
        "ĠNB": 4550,
        "ĠNN": 4551,
        "ĠNMP": 4552,
        "ĠNNNS": 4553,
        "ĠNNSN": 4554,
        "ĠNSNN": 4555,
        "ĠBA": 4556,
        "ĠBE": 4557,
        "ĠBy": 4558,
        "ngln": 4559,
        "ngbintrn": 4560,
        "nguy": 4561,
        "ngthcngvi": 4562,
        "ĠSE": 4563,
        "ĠSJ": 4564,
        "ĠSy": 4565,
        "ĠSBD": 4566,
        "ĠSMC": 4567,
        "ĠSAM": 4568,
        "ĠSDC": 4569,
        "Ġ]^": 4570,
        "Ġ]}\\": 4571,
        "Ġ[-\\": 4572,
        "{\\!": 4573,
        "nac": 4574,
        "ĠCF": 4575,
        "ĠCN": 4576,
        "ĠDAB": 4577,
        "ĠDCA": 4578,
        "ĠDCC": 4579,
        "ĠFG": 4580,
        "ĠhÃ¬nh": 4581,
        "Ġ51": 4582,
        "Ġ58": 4583,
        "Ġ5000": 4584,
        "Ġ550": 4585,
        "Ġ538": 4586,
        "Ġ573": 4587,
        "Ġ574": 4588,
        "Ġ576": 4589,
        "Ġ502": 4590,
        "Ġ56320": 4591,
        "ĠVh": 4592,
        "ĠHD": 4593,
        "ĠHK": 4594,
        "ĠHN": 4595,
        "hoice": 4596,
        "varli": 4597,
        "varlim": 4598,
        "ĠXB": 4599,
        "ĠEF": 4600,
        "endgroup": 4601,
        "begingroup": 4602,
        "Ġ62": 4603,
        "Ġ67": 4604,
        "Ġ68": 4605,
        "Ġ616": 4606,
        "Ġ614": 4607,
        "Ġ618": 4608,
        "Ġ617": 4609,
        "Ġ6000": 4610,
        "Ġ663": 4611,
        "Ġ685": 4612,
        "Ġ673": 4613,
        "Ġ679": 4614,
        "Ġ6220": 4615,
        "ĠQN": 4616,
        "ĠQR": 4617,
        "ster": 4618,
        "}\\%": 4619,
        "}\\,\\,": 4620,
        "}\\;(": 4621,
        "ĠIC": 4622,
        "ĠID": 4623,
        "ĠIF": 4624,
        "ĠIO": 4625,
        "cosin": 4626,
        "Ġ*}": 4627,
        "^{(\\": 4628,
        "^{+}": 4629,
        "^{*}": 4630,
        "ĠKB": 4631,
        "ĠKDC": 4632,
        "Ġ80": 4633,
        "Ġ89": 4634,
        "Ġ820": 4635,
        "Ġ810": 4636,
        "Ġ816": 4637,
        "Ġ825": 4638,
        "Ġ827": 4639,
        "Ġ824": 4640,
        "Ġ829": 4641,
        "Ġ875": 4642,
        "Ġ880": 4643,
        "Ġ896": 4644,
        "Ġ863": 4645,
        "Ġ862": 4646,
        "Ġ876": 4647,
        "Ġ806": 4648,
        "Ġ8726": 4649,
        "_{+}": 4650,
        "Ġ;+": 4651,
        "Ġ\\{(": 4652,
        "Ġ71": 4653,
        "Ġ73": 4654,
        "Ġ76": 4655,
        "Ġ712": 4656,
        "Ġ721": 4657,
        "Ġ750": 4658,
        "Ġ749": 4659,
        "Ġ794": 4660,
        "Ġ7726": 4661,
        "Ġ7423": 4662,
        "Ġ7424": 4663,
        "Ġ7776": 4664,
        ")\\;\\": 4665,
        ")\\}.": 4666,
        "}}_": 4667,
        "}}|": 4668,
        "}}~": 4669,
        "}})^": 4670,
        "}};-": 4671,
        "}}):": 4672,
        "}}|=": 4673,
        "}}[\\": 4674,
        "}}^{-": 4675,
        "}}}<": 4676,
        "}}}}}": 4677,
        "}},~": 4678,
        "}}}\\,": 4679,
        "}}}}+\\": 4680,
        "}}}}{{": 4681,
        "Ġ92": 4682,
        "Ġ9000": 4683,
        "Ġ947": 4684,
        "Ġ9726": 4685,
        "Ġ92160": 4686,
        "Ġ9830": 4687,
        "}}{-\\": 4688,
        ")^+}\\": 4689,
        "ĠOE": 4690,
        "ĠOI": 4691,
        "ĠOM": 4692,
        "ĠOMN": 4693,
        "ĠOCD": 4694,
        "ĠOIA": 4695,
        "ĠOIB": 4696,
        "2027": 4697,
        "2050": 4698,
        "2033": 4699,
        "2054": 4700,
        "2038": 4701,
        "2044": 4702,
        "2085": 4703,
        "2058": 4704,
        "20600": 4705,
        "2084": 4706,
        "2087": 4707,
        "2086": 4708,
        "204034": 4709,
        "20412": 4710,
        "20403": 4711,
        "}=[": 4712,
        "}=(\\": 4713,
        "}=[\\": 4714,
        "}=|\\": 4715,
        "}={(": 4716,
        "}={{\\": 4717,
        "}={(\\": 4718,
        ")=(\\": 4719,
        ")=|\\": 4720,
        ")={{\\": 4721,
        "(\\,": 4722,
        "(-|": 4723,
        "1012": 4724,
        "1015": 4725,
        "1013": 4726,
        "1014": 4727,
        "1027": 4728,
        "10100": 4729,
        "1040": 4730,
        "1026": 4731,
        "1045": 4732,
        "1022": 4733,
        "1048": 4734,
        "1081": 4735,
        "1033": 4736,
        "1090": 4737,
        "1039": 4738,
        "1056": 4739,
        "1077": 4740,
        "1095": 4741,
        "1070": 4742,
        "1093": 4743,
        "1094": 4744,
        "1092": 4745,
        "10304": 4746,
        "10239": 4747,
        "10302": 4748,
        "10395": 4749,
        "10584": 4750,
        "}^{(": 4751,
        "}^{|": 4752,
        "}^{}}{": 4753,
        "}^{{{\\": 4754,
        "\\}^": 4755,
        "\\}}\\": 4756,
        "\\}<\\": 4757,
        "\\},\\,\\": 4758,
        "=-(\\": 4759,
        "textre": 4760,
        "}^+}": 4761,
        "rich": 4762,
        "2011": 4763,
        "20149": 4764,
        "20156": 4765,
        "1220": 4766,
        "1210": 4767,
        "1216": 4768,
        "1215": 4769,
        "1213": 4770,
        "1225": 4771,
        "1230": 4772,
        "1221": 4773,
        "1232": 4774,
        "1222": 4775,
        "1290": 4776,
        "1263": 4777,
        "1295": 4778,
        "1269": 4779,
        "12101": 4780,
        "12110": 4781,
        "12104": 4782,
        "12107": 4783,
        "12234": 4784,
        "12504": 4785,
        "12285": 4786,
        "12357": 4787,
        "126720": 4788,
        ")=\\{": 4789,
        "ABG": 4790,
        "ABQ": 4791,
        "ABMD": 4792,
        "ABDC": 4793,
        "ABBA": 4794,
        "ABPN": 4795,
        "ABMNC": 4796,
        "ABYZ": 4797,
        "}-...": 4798,
        "minf": 4799,
        "001": 4800,
        "002": 4801,
        "008": 4802,
        "0012": 4803,
        "0071": 4804,
        "):-\\": 4805,
        "):\\;": 4806,
        "Thtv": 4807,
        "1612": 4808,
        "1616": 4809,
        "1618": 4810,
        "1623": 4811,
        "1628": 4812,
        "1698": 4813,
        "1682": 4814,
        "1688": 4815,
        "16119": 4816,
        "1689": 4817,
        "16137": 4818,
        "16384": 4819,
        "16142": 4820,
        "16267": 4821,
        "161700": 4822,
        "16758": 4823,
        "166320": 4824,
        "158": 4825,
        "1517": 4826,
        "1533": 4827,
        "15120": 4828,
        "150000": 4829,
        "1594": 4830,
        "15840": 4831,
        "1500000": 4832,
        "151200": 4833,
        "15131": 4834,
        "1581000": 4835,
        "15872": 4836,
        "1320": 4837,
        "1300": 4838,
        "1316": 4839,
        "1317": 4840,
        "13000": 4841,
        "1345": 4842,
        "1348": 4843,
        "1349": 4844,
        "1365": 4845,
        "1331": 4846,
        "1352": 4847,
        "1347": 4848,
        "1366": 4849,
        "1370": 4850,
        "1346": 4851,
        "1376": 4852,
        "1388": 4853,
        "1369": 4854,
        "1389": 4855,
        "13117": 4856,
        "13122": 4857,
        "13234": 4858,
        "13440": 4859,
        "13116": 4860,
        "),~\\": 4861,
        "1120": 4862,
        "1111": 4863,
        "11100": 4864,
        "1140": 4865,
        "1145": 4866,
        "1181": 4867,
        "11400": 4868,
        "1188": 4869,
        "1186": 4870,
        "257": 4871,
        "2513": 4872,
        "2518": 4873,
        "2530": 4874,
        "25000": 4875,
        "2560": 4876,
        "2550": 4877,
        "2548": 4878,
        "2575": 4879,
        "2590": 4880,
        "25200": 4881,
        "2576": 4882,
        "252000": 4883,
        "2584": 4884,
        "2587": 4885,
        "2500000": 4886,
        "abi": 4887,
        "abx": 4888,
        ")+{": 4889,
        ")+(-": 4890,
        ")^{|": 4891,
        "]{{{\\": 4892,
        "1420": 4893,
        "1418": 4894,
        "1424": 4895,
        "1419": 4896,
        "1460": 4897,
        "1408": 4898,
        "1445": 4899,
        "1481": 4900,
        "1480": 4901,
        "14250": 4902,
        "1459": 4903,
        "1484": 4904,
        "14350": 4905,
        "14199": 4906,
        "14299": 4907,
        "stac": 4908,
        "}(|": 4909,
        "}}\\%": 4910,
        "}}\\}": 4911,
        "}}\\,\\": 4912,
        "}}\\,\\,": 4913,
        "}}\\,\\,\\,\\": 4914,
        "|={{\\": 4915,
        "20172018": 4916,
        "1820": 4917,
        "1844": 4918,
        "1867": 4919,
        "1866": 4920,
        "1876": 4921,
        "1801": 4922,
        "181440": 4923,
        "18252000": 4924,
        "}.\\\\": 4925,
        "}...": 4926,
        "174": 4927,
        "17100": 4928,
        "1750": 4929,
        "1701": 4930,
        "172800": 4931,
        "BCI": 4932,
        "BCS": 4933,
        "BCCB": 4934,
        "BCHK": 4935,
        "271": 4936,
        "2700": 4937,
        "27000": 4938,
        "2750": 4939,
        "2735": 4940,
        "2755": 4941,
        "27216": 4942,
        "2750000": 4943,
        "271317": 4944,
        "249": 4945,
        "2416": 4946,
        "2432": 4947,
        "2435": 4948,
        "2456": 4949,
        "2499": 4950,
        "2497": 4951,
        "24360": 4952,
        "2401": 4953,
        "242000": 4954,
        "2469": 4955,
        "240000": 4956,
        "2420000": 4957,
        "24689": 4958,
        "241920": 4959,
        "Ġ-\\,": 4960,
        "ABCB": 4961,
        "ABCH": 4962,
        "ABCI": 4963,
        "ABCN": 4964,
        "ABCO": 4965,
        "ABCMN": 4966,
        "ABCMNP": 4967,
        "ABCNM": 4968,
        "ABCHK": 4969,
        "ABCIK": 4970,
        "ABCED": 4971,
        "ABCIJC": 4972,
        "ACI": 4973,
        "ACMN": 4974,
        "ACBD": 4975,
        "ACNM": 4976,
        "303": 4977,
        "307": 4978,
        "3010": 4979,
        "3016": 4980,
        "3017": 4981,
        "3024": 4982,
        "3060": 4983,
        "3029": 4984,
        "3049": 4985,
        "3080": 4986,
        "3072": 4987,
        "3042": 4988,
        "3097": 4989,
        "30240": 4990,
        "30960": 4991,
        "303600": 4992,
        "'={\\": 4993,
        "2110": 4994,
        "2199": 4995,
        "2192": 4996,
        "21130": 4997,
        "21200000": 4998,
        "2120600": 4999,
        "{{{{\\": 5000,
        "{{({\\": 5001,
        "})|": 5002,
        "})}\\": 5003,
        "})-\\": 5004,
        "})+\\": 5005,
        "}))=": 5006,
        "})'=\\": 5007,
        "})}^{\\": 5008,
        "}),\\,": 5009,
        "};\\,\\": 5010,
        "SAG": 5011,
        "SAH": 5012,
        "SAK": 5013,
        "SAN": 5014,
        "SAMNP": 5015,
        "SAIJ": 5016,
        "SAIC": 5017,
        "framebox": 5018,
        ")}<": 5019,
        ")}>": 5020,
        ")})=": 5021,
        ")},\\": 5022,
        "329": 5023,
        "3213": 5024,
        "3211": 5025,
        "3260": 5026,
        "3235": 5027,
        "3233": 5028,
        "32180": 5029,
        "32162": 5030,
        "32960": 5031,
        "32118": 5032,
        "322560": 5033,
        "1900": 5034,
        "1911": 5035,
        "1917": 5036,
        "1932": 5037,
        "1936": 5038,
        "1975": 5039,
        "1999": 5040,
        "1985": 5041,
        "1955": 5042,
        "1997": 5043,
        "1982": 5044,
        "1969": 5045,
        "1986": 5046,
        "1971": 5047,
        "1992": 5048,
        "1979": 5049,
        "19368": 5050,
        "19602": 5051,
        "19674": 5052,
        "192456": 5053,
        "Ġ''(": 5054,
        "Ġ{\\%}": 5055,
        ").{": 5056,
        "MNG": 5057,
        "MNI": 5058,
        "MNK": 5059,
        "MNN": 5060,
        "MNAB": 5061,
        "MNABC": 5062,
        "MNABCD": 5063,
        "MNKQ": 5064,
        "axe": 5065,
        "364": 5066,
        "366": 5067,
        "36000": 5068,
        "3675": 5069,
        "3637": 5070,
        "3654": 5071,
        "3667": 5072,
        "36288": 5073,
        "36900": 5074,
        "362880": 5075,
        "1002": 5076,
        "1004": 5077,
        "10084": 5078,
        "10089": 5079,
        "{(|": 5080,
        "}_+^*": 5081,
        "ointop": 5082,
        "603": 5083,
        "606": 5084,
        "607": 5085,
        "6021": 5086,
        "6060": 5087,
        "6048": 5088,
        "6049": 5089,
        "6080": 5090,
        "6056": 5091,
        "6061": 5092,
        "6052": 5093,
        "6047": 5094,
        "6055": 5095,
        "6059": 5096,
        "60480": 5097,
        "604800": 5098,
        "402": 5099,
        "404": 5100,
        "406": 5101,
        "409": 5102,
        "4020": 5103,
        "4024": 5104,
        "4030": 5105,
        "4050": 5106,
        "4029": 5107,
        "4028": 5108,
        "4031": 5109,
        "4080": 5110,
        "4041": 5111,
        "4044": 5112,
        "40500": 5113,
        "4066": 5114,
        "4095": 5115,
        "4070": 5116,
        "4058": 5117,
        "4046": 5118,
        "4094": 5119,
        "40320": 5120,
        "noinde": 5121,
        ")({": 5122,
        ")({{": 5123,
        "<\\!": 5124,
        "268": 5125,
        "2612": 5126,
        "2600": 5127,
        "2616": 5128,
        "2615": 5129,
        "2613": 5130,
        "2618": 5131,
        "2617": 5132,
        "2619": 5133,
        "2623": 5134,
        "2690": 5135,
        "2657": 5136,
        "2688": 5137,
        "26800": 5138,
        "26815": 5139,
        "ADH": 5140,
        "ADI": 5141,
        "ADS": 5142,
        "ADMN": 5143,
        "ADCB": 5144,
        "ADDA": 5145,
        "SBM": 5146,
        "SBO": 5147,
        "SBAC": 5148,
        "SBMN": 5149,
        "SBMD": 5150,
        "2310": 5151,
        "2315": 5152,
        "2352": 5153,
        "2347": 5154,
        "2399": 5155,
        "2358": 5156,
        "232000": 5157,
        "23180": 5158,
        "23477": 5159,
        "232518": 5160,
        "SCM": 5161,
        "SCO": 5162,
        "Ġ2010": 5163,
        "Ġ2050": 5164,
        "\\,;": 5165,
        "\\,{{": 5166,
        ")}{{": 5167,
        "507": 5168,
        "5044": 5169,
        "5095": 5170,
        "50400": 5171,
        "080": 5172,
        "085": 5173,
        "086": 5174,
        "0806": 5175,
        "]\\,\\": 5176,
        ")=-(": 5177,
        ")=-{{": 5178,
        ")>{\\": 5179,
        ")>{{\\": 5180,
        "},\\,(": 5181,
        "Ġ(\\%)": 5182,
        "295": 5183,
        "297": 5184,
        "298": 5185,
        "2916": 5186,
        "2940": 5187,
        "2968": 5188,
        "292000": 5189,
        "29525": 5190,
        "29524": 5191,
        "298440": 5192,
        "..+{": 5193,
        "arccot": 5194,
        "Ġ1013": 5195,
        "Ġ1024": 5196,
        "Ġ10726": 5197,
        "Ġ10749": 5198,
        "3500": 5199,
        "3517": 5200,
        "3547": 5201,
        "3574": 5202,
        "350000": 5203,
        "352623": 5204,
        "284": 5205,
        "286": 5206,
        "2867": 5207,
        "2873": 5208,
        "2870": 5209,
        "28800": 5210,
        "2889": 5211,
        "457": 5212,
        "458": 5213,
        "4536": 5214,
        "4581": 5215,
        "45125": 5216,
        "4563": 5217,
        "45672": 5218,
        "342": 5219,
        "3400": 5220,
        "3422": 5221,
        "3475": 5222,
        "3465": 5223,
        "3473": 5224,
        "34400": 5225,
        "34236": 5226,
        "342187": 5227,
        "34240000": 5228,
        "ABCDA": 5229,
        "ABCDD": 5230,
        "ABCDSA": 5231,
        "ABCDMN": 5232,
        "ABCDSH": 5233,
        "ABCDSEF": 5234,
        "^{-(": 5235,
        "22168": 5236,
        "22177": 5237,
        "22167": 5238,
        "222800": 5239,
        "22178": 5240,
        "482": 5241,
        "484": 5242,
        "485": 5243,
        "48000": 5244,
        "4839": 5245,
        "48873": 5246,
        "}=-(": 5247,
        "}=-|": 5248,
        "Ġ}{|": 5249,
        "8110": 5250,
        "647": 5251,
        "64000": 5252,
        "6435": 5253,
        "6490": 5254,
        "64152": 5255,
        "6426815": 5256,
        "338": 5257,
        "3320": 5258,
        "3334": 5259,
        "3375": 5260,
        "33240": 5261,
        ")}^{{{": 5262,
        "MBD": 5263,
        "MBN": 5264,
        "MBNP": 5265,
        "MBPA": 5266,
        "}<-": 5267,
        "}<{\\": 5268,
        "\\!<\\!": 5269,
        ")<-": 5270,
        "20162017": 5271,
        "201600000": 5272,
        "CDB": 5273,
        "CDG": 5274,
        "CDP": 5275,
        "CDNM": 5276,
        "MAE": 5277,
        "MAI": 5278,
        "494": 5279,
        "497": 5280,
        "4950": 5281,
        "4939": 5282,
        "4942": 5283,
        "4944": 5284,
        "4947": 5285,
        "4995": 5286,
        "492513": 5287,
        "=|(": 5288,
        "=|-": 5289,
        "=||": 5290,
        "751": 5291,
        "754": 5292,
        "755": 5293,
        "759": 5294,
        "7568": 5295,
        "7500000": 5296,
        "75328": 5297,
        "75528": 5298,
        "75497": 5299,
        "901": 5300,
        "902": 5301,
        "905": 5302,
        "906": 5303,
        "9056": 5304,
        "9047": 5305,
        "9057": 5306,
        "90720": 5307,
        "9093000": 5308,
        "\\%\\,": 5309,
        "}}({\\": 5310,
        "}}({{": 5311,
        ")}^\\": 5312,
        "1255": 5313,
        "652": 5314,
        "654": 5315,
        "655": 5316,
        "6550": 5317,
        "6539": 5318,
        "6577": 5319,
        "6500000": 5320,
        "656000": 5321,
        "65318": 5322,
        "65983": 5323,
        "6594000": 5324,
        "392": 5325,
        "393": 5326,
        "3924": 5327,
        "39840": 5328,
        "39361": 5329,
        "39356": 5330,
        "39366": 5331,
        "376": 5332,
        "379": 5333,
        "3717": 5334,
        "3723": 5335,
        "3722": 5336,
        "370000": 5337,
        "37332": 5338,
        "3739360": 5339,
        "3732960": 5340,
        "3736900": 5341,
        "BDE": 5342,
        "BDM": 5343,
        "BDN": 5344,
        "BDMN": 5345,
        "BDNM": 5346,
        "BDHCEF": 5347,
        "}}}(-": 5348,
        "}}}>\\": 5349,
        "31139": 5350,
        "OAO": 5351,
        "OAMN": 5352,
        "OAHK": 5353,
        "Ġ}_{_{\\": 5354,
        "541": 5355,
        "544": 5356,
        "5434": 5357,
        "5476": 5358,
        "54624": 5359,
        "1209": 5360,
        "12000": 5361,
        "12098": 5362,
        "120960": 5363,
        "803": 5364,
        "8060": 5365,
        "8047": 5366,
        "8073": 5367,
        "8077": 5368,
        "8046": 5369,
        "80486": 5370,
        "80640": 5371,
        "ĠBCC": 5372,
        "ĠBCE": 5373,
        "MCE": 5374,
        "MCN": 5375,
        "Ġ162": 5376,
        "Ġ163": 5377,
        "Ġ168": 5378,
        "Ġ16640": 5379,
        "Ġ16382": 5380,
        "AMH": 5381,
        "AMP": 5382,
        "AMPN": 5383,
        "AMEN": 5384,
        "AMIN": 5385,
        "AMKN": 5386,
        "')}}{": 5387,
        "385": 5388,
        "386": 5389,
        "387": 5390,
        "388": 5391,
        "3840": 5392,
        "3834": 5393,
        "3848": 5394,
        "3833": 5395,
        "3841": 5396,
        "3843": 5397,
        "3874": 5398,
        "3888": 5399,
        "38304": 5400,
        "384000": 5401,
        "962": 5402,
        "963": 5403,
        "9600": 5404,
        "abcde": 5405,
        "OMH": 5406,
        "OMI": 5407,
        "OMM": 5408,
        "OMHN": 5409,
        "MNPB": 5410,
        "MNPD": 5411,
        "MNPR": 5412,
        "MNPABC": 5413,
        "4216": 5414,
        "42187": 5415,
        "2002": 5416,
        "2003": 5417,
        "2004": 5418,
        "Ġ\\\\&\\": 5419,
        "Ġ\\\\&-\\": 5420,
        "563": 5421,
        "568": 5422,
        "56228": 5423,
        "56875": 5424,
        "EFH": 5425,
        "EFM": 5426,
        "EFHK": 5427,
        "EFNJ": 5428,
        "Ġ1595": 5429,
        "OBA": 5430,
        "OBE": 5431,
        "OBM": 5432,
        "4430": 5433,
        "44200": 5434,
        "44163": 5435,
        "443000": 5436,
        "61161": 5437,
        "\\;{\\": 5438,
        "531440": 5439,
        "4320": 5440,
        "43000": 5441,
        "473": 5442,
        "476": 5443,
        "478": 5444,
        "479": 5445,
        "4725": 5446,
        "47000": 5447,
        "47304": 5448,
        "47900": 5449,
        "4709": 5450,
        "470071": 5451,
        "471688": 5452,
        "682": 5453,
        "684": 5454,
        "6840": 5455,
        "6858": 5456,
        "6888": 5457,
        "68575": 5458,
        "}}}{{\\": 5459,
        "}}}{{{{\\": 5460,
        ";\\,|": 5461,
        "992": 5462,
        "993": 5463,
        "997": 5464,
        "998": 5465,
        "9990": 5466,
        "9996": 5467,
        "9977": 5468,
        "9997": 5469,
        "9998": 5470,
        "99430": 5471,
        "99267": 5472,
        "SABD": 5473,
        "SDI": 5474,
        "SDJ": 5475,
        "âĢĻ.": 5476,
        "âĢĻ(\\": 5477,
        "âĢĻ}(": 5478,
        "âĢĻ=(": 5479,
        "):\\,\\": 5480,
        "),\\,\\,": 5481,
        "BCDE": 5482,
        "BCDM": 5483,
        "BCDN": 5484,
        "BCDO": 5485,
        "BCDNM": 5486,
        "+...}": 5487,
        "+...}{": 5488,
        "ĠABM": 5489,
        "5004": 5490,
        "5000000": 5491,
        "5004000": 5492,
        "50000000": 5493,
        "ĠADC": 5494,
        "ĠADO": 5495,
        "Ġ20172018": 5496,
        "))}}": 5497,
        ")))=": 5498,
        "6300": 5499,
        "6324000": 5500,
        "63271317": 5501,
        "573": 5502,
        "577": 5503,
        "5760": 5504,
        "57793": 5505,
        "579067": 5506,
        "670": 5507,
        "671": 5508,
        "678": 5509,
        "67000": 5510,
        "6702": 5511,
        "67248": 5512,
        "679067": 5513,
        "679057": 5514,
        "OCB": 5515,
        "OCMN": 5516,
        "855": 5517,
        "8589": 5518,
        ")|.": 5519,
        ")|<": 5520,
        ")||(\\": 5521,
        "555": 5522,
        "558": 5523,
        "5532": 5524,
        "5552": 5525,
        "55346": 5526,
        "553500": 5527,
        "SNC": 5528,
        "SNQ": 5529,
        "SNNN": 5530,
        "}>-": 5531,
        "}>{\\": 5532,
        "6213": 5533,
        "1089": 5534,
        "108160": 5535,
        "7381": 5536,
        "100000000": 5537,
        "6665": 5538,
        "6672": 5539,
        "6668": 5540,
        "6667": 5541,
        "6669": 5542,
        "66121": 5543,
        "770": 5544,
        "779": 5545,
        "7710": 5546,
        "7725": 5547,
        "7728": 5548,
        "7768": 5549,
        "7777": 5550,
        "7782": 5551,
        "}}.{": 5552,
        "74000": 5553,
        "7440": 5554,
        "7445": 5555,
        "7448": 5556,
        "74207": 5557,
        "}'<": 5558,
        "SACD": 5559,
        "\\,\\,\\,(": 5560,
        "^+)": 5561,
        "1282": 5562,
        "1283": 5563,
        "1284": 5564,
        "128432": 5565,
        "1288110": 5566,
        "971": 5567,
        "9763": 5568,
        ")]>": 5569,
        ")]}\\": 5570,
        ")]-\\": 5571,
        ")]=|": 5572,
        ")]=[": 5573,
        "IJB": 5574,
        "IJG": 5575,
        "IJCD": 5576,
        "SMP": 5577,
        "SMBC": 5578,
        "SMGB": 5579,
        "ĠCDB": 5580,
        "ĠCDO": 5581,
        "982": 5582,
        "986": 5583,
        "989": 5584,
        "9880": 5585,
        "98280": 5586,
        "95100": 5587,
        "MDC": 5588,
        "14400": 5589,
        "144000": 5590,
        "144492513": 5591,
        "SOMN": 5592,
        "Ġ\\%.": 5593,
        "Ġ\\%\\;(": 5594,
        "701": 5595,
        "707": 5596,
        "7063": 5597,
        "7095": 5598,
        "7076": 5599,
        "70947": 5600,
        "70308": 5601,
        "70698": 5602,
        "70656000": 5603,
        "'=-(": 5604,
        "583": 5605,
        "586": 5606,
        "588": 5607,
        "589": 5608,
        "58675": 5609,
        "6005": 5610,
        "Ġ2520": 5611,
        "Ġ25000": 5612,
        "ĠSCB": 5613,
        "469": 5614,
        "7680": 5615,
        "82304": 5616,
        "2501": 5617,
        "2502": 5618,
        "21665983": 5619,
        "4004": 5620,
        "4009": 5621,
        "40000": 5622,
        "4005000": 5623,
        "40080000": 5624,
        "DCE": 5625,
        "DCEF": 5626,
        "ĠSAO": 5627,
        "784": 5628,
        "786": 5629,
        "7889": 5630,
        "7879": 5631,
        "786858": 5632,
        "^-}=+\\": 5633,
        "skew": 5634,
        "SADE": 5635,
        "|.(": 5636,
        "AHD": 5637,
        "AHMK": 5638,
        "BAS": 5639,
        "{||": 5640,
        "888": 5641,
        "8800": 5642,
        "8856": 5643,
        "88400": 5644,
        "88430": 5645,
        "88933": 5646,
        "3004": 5647,
        "3005": 5648,
        "30000": 5649,
        "300000": 5650,
        "3000000": 5651,
        "30000000": 5652,
        "592": 5653,
        "59280": 5654,
        "59203": 5655,
        "256000": 5656,
        "ACDB": 5657,
        "ACDM": 5658,
        "ANMK": 5659,
        "ANKB": 5660,
        "Ġ}}:{": 5661,
        "Ġ2430": 5662,
        "Ġ1007": 5663,
        "Ġ4550": 5664,
        "62500": 5665,
        "Ġ6051": 5666,
        "2000000": 5667,
        "SHA": 5668,
        "SHB": 5669,
        "SHD": 5670,
        "SHACD": 5671,
        "BMGH": 5672,
        "|({{": 5673,
        "MNPQABCD": 5674,
        "MNPQRS": 5675,
        "692": 5676,
        "84509": 5677,
        "842940": 5678,
        "871": 5679,
        "8765": 5680,
        "879056": 5681,
        "BNK": 5682,
        "NMCD": 5683,
        "ĠSDB": 5684,
        "00001": 5685,
        "^*}}": 5686,
        "^*})": 5687,
        "8325": 5688,
        "8650": 5689,
        "Ġ4020": 5690,
        "Ġ4036": 5691,
        "Ġ4039": 5692,
        "2258": 5693,
        "2250000": 5694,
        "lsnguy": 5695,
        "AMNB": 5696,
        "AMNC": 5697,
        "AMNG": 5698,
        "HKB": 5699,
        "HKL": 5700,
        "HKCC": 5701,
        "HKCB": 5702,
        "SIB": 5703,
        "SIK": 5704,
        "SIM": 5705,
        "SIN": 5706,
        "tering": 5707,
        "~(*)": 5708,
        "PQNMD": 5709,
        "AGD": 5710,
        "AGBC": 5711,
        "AGMC": 5712,
        "CNP": 5713,
        "CNMA": 5714,
        "Ozy": 5715,
        "}},{{": 5716,
        "2402": 5717,
        "2403": 5718,
        "240643": 5719,
        "Ġ\\,\\,\\,": 5720,
        "112687500": 5721,
        "AEB": 5722,
        "AED": 5723,
        "AEH": 5724,
        "AEBD": 5725,
        "AEBF": 5726,
        "AEMF": 5727,
        "AKB": 5728,
        "AKC": 5729,
        "AKH": 5730,
        "mnz": 5731,
        "}}>{\\": 5732,
        "}}>{{\\": 5733,
        "Ġ...+": 5734,
        "11520": 5735,
        "115687500": 5736,
        "115586": 5737,
        "1102": 5738,
        "1106": 5739,
        "110544": 5740,
        "140608": 5741,
        "AID": 5742,
        "AIM": 5743,
        "APMQ": 5744,
        "APNMCD": 5745,
        "CPD": 5746,
        "OABH": 5747,
        "OABO": 5748,
        "|>|": 5749,
        "ĠMNPQ": 5750,
        "}|=|\\": 5751,
        "Ġ307": 5752,
        "1031635": 5753,
        "1691595": 5754,
        "1691955": 5755,
        "13091": 5756,
        ")|=+\\": 5757,
        "MPIK": 5758,
        "MPNQ": 5759,
        "OIM": 5760,
        "}]|": 5761,
        "Oxzy": 5762,
        "2203": 5763,
        "2209": 5764,
        "3241": 5765,
        "3240000": 5766,
        "32420000": 5767,
        "}}^{*}": 5768,
        "}}^{*}\\": 5769,
        "208346": 5770,
        "208347": 5771,
        "12413": 5772,
        "124656": 5773,
        "136250": 5774,
        "){:}\\,": 5775,
        "SABCM": 5776,
        "14720": 5777,
        "14730": 5778,
        "14780": 5779,
        "265200": 5780,
        "4000500": 5781,
        "5000400": 5782,
        "BHC": 5783,
        "BHD": 5784,
        "GGT": 5785,
        "}}}}:\\": 5786,
        "12650": 5787,
        "15335": 5788,
        "2809": 5789,
        "21530": 5790,
        "215456": 5791,
        "3209": 5792,
        "320000": 5793,
        "3754": 5794,
        "3750000": 5795,
        "72576000": 5796,
        "72567000": 5797,
        "IMJ": 5798,
        "207360": 5799,
        "117600": 5800,
        "117187500": 5801,
        ")}}{{{": 5802,
        "44910": 5803,
        "44918": 5804,
        "44928": 5805,
        "44902": 5806,
        "44998430": 5807,
        "44999430": 5808,
        "44988430": 5809,
        "900000": 5810,
        "AEFB": 5811,
        "AEFG": 5812,
        "AEFK": 5813,
        "MIN": 5814,
        "||(\\": 5815,
        "}:\\,": 5816,
        "17094": 5817,
        "17635000": 5818,
        "1763334": 5819,
        "27045": 5820,
        "27072": 5821,
        "24580": 5822,
        "290646": 5823,
        "354292": 5824,
        "354294": 5825,
        "32574": 5826,
        "45054": 5827,
        "AOS": 5828,
        "btngthcngvi": 5829,
        "}\\,\\,\\,": 5830,
        "114244": 5831,
        "114187500": 5832,
        "27866121": 5833,
        ")}.}": 5834,
        "21235000": 5835,
        "21233000": 5836,
        "41250": 5837,
        "MHAK": 5838,
        "18540": 5839,
        "18564": 5840,
        ")}}\\,": 5841,
        "2179": 5842,
        "217354": 5843,
        "6481458": 5844,
        "AMNPBCD": 5845,
        "BFC": 5846,
        "CEMF": 5847,
        "IKG": 5848,
        "IKMN": 5849,
        "ODEF": 5850,
        "PAQ": 5851,
        "SEBD": 5852,
        "Ġ28160": 5853,
        "mathchoice": 5854,
        "14814720": 5855,
        "18435": 5856,
        "17550": 5857,
        "177144": 5858,
        "177147": 5859,
        "120096": 5860,
        "3456": 5861,
        "34560": 5862,
        "34587": 5863,
        "44074000": 5864,
        "59040": 5865,
        "59048": 5866,
        "720000": 5867,
        "BMDA": 5868,
        "BMDN": 5869,
        "OHM": 5870,
        "Ġ2009": 5871,
        "204848000": 5872,
        "204847000": 5873,
        "1293600": 5874,
        "34650": 5875,
        "232289": 5876,
        "6750000": 5877,
        "6671": 5878,
        "6673": 5879,
        "6674": 5880,
        "667735": 5881,
        "815000": 5882,
        "AFB": 5883,
        "AMCN": 5884,
        "BEC": 5885,
        "HEJ": 5886,
        "MBCN": 5887,
        "OBCO": 5888,
        "TTG": 5889,
        "2035144": 5890,
        "2035145": 5891,
        "2035143": 5892,
        "2035146": 5893,
        "ĠĠĠĠĠ": 5894,
        "ĠĠĠĠĠĠĠ": 5895,
        "}+...+(-": 5896,
        "withdelim": 5897,
        ",...,": 5898,
        "2239977": 5899,
        "227830": 5900,
        "227832": 5901,
        "227835": 5902,
        "227834": 5903,
        "227831": 5904,
        "311108": 5905,
        "54045": 5906,
        "680430": 5907,
        "680403": 5908,
        "9753": 5909,
        "9754": 5910,
        "9755": 5911,
        "BMNE": 5912,
        "DIG": 5913,
        "DQA": 5914,
        "IFJ": 5915,
        "IFO": 5916,
        "}}}}{{{": 5917,
        "16723477": 5918,
        "18920": 5919,
        "37026": 5920,
        "77760": 5921,
        "7776300": 5922,
        "AHBS": 5923,
        "5452711": 5924,
        "}\\!\\!\\!\\!": 5925,
        "-...-": 5926,
        "-...-\\": 5927,
        "-...+\\": 5928,
        "-...+(-": 5929,
        "22425": 5930,
        "221100": 5931,
        "32768": 5932,
        "327292000": 5933,
        "39062": 5934,
        "390625": 5935,
        "448290": 5936,
        "44898430": 5937,
        "615000": 5938,
        "6972592": 5939,
        "73580": 5940,
        "8080": 5941,
        "92695100": 5942,
        "MCDA": 5943,
        "~(\\%)": 5944,
        "Ġ47360": 5945,
        "}}(\\%)": 5946,
        "2031000": 5947,
        "102354624": 5948,
        "ABMND": 5949,
        "ABNMFE": 5950,
        "131313": 5951,
        "1313131313": 5952,
        "32869": 5953,
        "19682": 5954,
        ")...(": 5955,
        "100699267": 5956,
        "262143": 5957,
        "6421000": 5958,
        "80902400": 5959,
        "5787710": 5960,
        "4121202990": 5961,
        "4121202991": 5962,
        "4121202989": 5963,
        "4121202992": 5964,
        ")!+": 5965,
        ")!}=\\": 5966,
        "21448": 5967,
        "2186": 5968,
        "22680": 5969,
        "31250": 5970,
        "31416": 5971,
        "31925": 5972,
        "312518": 5973,
        "42465000": 5974,
        "43593000": 5975,
        "46794000": 5976,
        "46712413": 5977,
        "56578": 5978,
        "66528": 5979,
        "70812": 5980,
        "79833600": 5981,
        "81626": 5982,
        "81648": 5983,
        "92514": 5984,
        "92576000": 5985,
        "9476": 5986,
        "GTG": 5987,
        "JKDA": 5988,
        "MJIK": 5989,
        "NQP": 5990,
        "Ġ14840": 5991,
        "Ġ14848": 5992,
        "Ġ14846": 5993,
        "^{+}}\\": 5994,
        ")\\!}^": 5995,
        "}}:{": 5996,
        "}}},\\,(": 5997,
        "20349": 5998,
        "2039187": 5999,
        "101793": 6000,
        "}+..+\\": 6001,
        "}+...\\": 6002,
        "}+....+{": 6003,
        "15775497": 6004,
        "25942": 6005,
        "2592100": 6006,
        "25921000": 6007,
        "194265": 6008,
        "194591": 6009,
        "194592": 6010,
        "4068289": 6011,
        "4068288": 6012,
        "\\!=\\!\\": 6013,
        "3991680": 6014,
        "56782": 6015,
        "44316000": 6016,
        "470400": 6017,
        "APRQCD": 6018,
        "290642000": 6019,
        "290640000": 6020,
        "290644000": 6021,
        "Ġtclchngminh": 6022,
        "Ġtclbtngthcngvi": 6023,
        "41056": 6024,
        "4374": 6025,
        "6138": 6026,
        "717815000": 6027,
        "73728": 6028,
        "7385": 6029,
        "797161": 6030,
        "79760000": 6031,
        "8138589": 6032,
        "81848": 6033,
        "81868": 6034,
        "86400": 6035,
        "85688": 6036,
        "91410": 6037,
        "93333240": 6038,
        "9801": 6039,
        "CGD": 6040,
        "EBCFAD": 6041,
        "KHAD": 6042,
        "SMNPD": 6043,
        "cent": 6044,
        "centering": 6045,
        "nhtkh": 6046,
        "Ġ225280": 6047,
        "Ġ23040": 6048,
        "Ġ23038": 6049,
        "index": 6050,
        "ĠSNNN": 6051,
        "}}}.}": 6052,
        "2098960": 6053,
        "2098961": 6054,
        "1020604": 6055,
        "12750000": 6056,
        "15546": 6057,
        "1595280": 6058,
        "13258": 6059,
        "136080": 6060,
        "141713091": 6061,
        "242572": 6062,
        "242546": 6063,
        "ACGS": 6064,
        "302088933": 6065,
        "321556228": 6066,
        "MNEFPQ": 6067,
        "100861000": 6068,
        "100861016": 6069,
        "408242": 6070,
        "406221": 6071,
        "4062240": 6072,
        "344964": 6073,
        "344963": 6074,
        "}}+...+\\": 6075,
        "147278480": 6076,
        "147278481": 6077,
        "147347190": 6078,
        "147347191": 6079,
        "155117520": 6080,
        "155117519": 6081,
        "Ġ39505475": 6082,
        "Ġ39505476": 6083,
        "Ġ33935125": 6084,
        "Ġ33935120": 6085,
        "145422675": 6086,
        "145422676": 6087,
        "Tacnchngminh": 6088,
        "lmthmnghch": 6089,
        "'~:~\\": 6090,
        "01059203": 6091,
        "2150600": 6092,
        "22653924": 6093,
        "335232000": 6094,
        "31904000": 6095,
        "316420": 6096,
        "43833000": 6097,
        "442176": 6098,
        "41600000": 6099,
        "413720": 6100,
        "46666620": 6101,
        "55786": 6102,
        "595000": 6103,
        "5151214": 6104,
        "690952": 6105,
        "71032869": 6106,
        "71960": 6107,
        "74088": 6108,
        "74813000": 6109,
        "79956782": 6110,
        "829440": 6111,
        "84510": 6112,
        "86661161": 6113,
        "94444200": 6114,
        "92690000": 6115,
        ";...;": 6116,
        "<...<": 6117,
        "COGB": 6118,
        "EIQ": 6119,
        "Gistac": 6120,
        "GABA": 6121,
        "Math": 6122,
        "MHKE": 6123,
        "OHCK": 6124,
        "Skhc": 6125,
        "TextOr": 6126,
        "cngngvi": 6127,
        "chohms": 6128,
        "digamma": 6129,
        "gister": 6130,
        "gimel": 6131,
        "iuphichngminh": 6132,
        "joinrel": 6133,
        "nlnnhtkh": 6134,
        "saochohms": 6135,
        "Ġtac": 6136,
        "ĠâĢĵ": 6137,
        "Ġ21529": 6138,
        "Ġ11520": 6139,
        "Ġ1966080": 6140,
        "mathaccent": 6141,
        "Ġtrong": 6142,
        "Ġ32768": 6143,
        "Ġ36864": 6144,
        "Ġ39424": 6145,
        "nglnhn": 6146,
        "varliminf": 6147,
        "varlimsup": 6148,
        "Ġ622080": 6149,
        "Ġ827440": 6150,
        "}}}<{{": 6151,
        "}}}}{{.": 6152,
        "Ġ94720": 6153,
        "Ġ983040": 6154,
        "204034000": 6155,
        "2041210": 6156,
        "204032000": 6157,
        "1048575": 6158,
        "10566000": 6159,
        "107791": 6160,
        "109584": 6161,
        "textregister": 6162,
        "richter": 6163,
        "2014982": 6164,
        "}-...-\\": 6165,
        "Thtvy": 6166,
        "16283241": 6167,
        "1611955": 6168,
        "161421000": 6169,
        "16267104": 6170,
        "1594322": 6171,
        "1345899": 6172,
        "138948873": 6173,
        "142492514": 6174,
        "1408722": 6175,
        "1445332": 6176,
        "142506": 6177,
        "143506": 6178,
        "1419943": 6179,
        "184426": 6180,
        "186792": 6181,
        "186624": 6182,
        "1710072": 6183,
        "27507768": 6184,
        "243238": 6185,
        "2435600": 6186,
        "ABCIKC": 6187,
        "309718": 6188,
        "309604": 6189,
        "323582": 6190,
        "3637960": 6191,
        "3667290": 6192,
        "36288000": 6193,
        "}_+^*\\": 6194,
        "4080400": 6195,
        "4066272": 6196,
        "4070306": 6197,
        "noindent": 6198,
        "265720": 6199,
        "SBMDN": 6200,
        "2347600": 6201,
        "23991000": 6202,
        "509545": 6203,
        "352623000": 6204,
        "45672181": 6205,
        "342227000": 6206,
        "34400000": 6207,
        "342187000": 6208,
        "6490123": 6209,
        "64268158": 6210,
        "33750000": 6211,
        "756839": 6212,
        "65393000": 6213,
        "657720": 6214,
        "6531840": 6215,
        "398402": 6216,
        "37332960": 6217,
        "311392503": 6218,
        "80486000": 6219,
        "3888150": 6220,
        "3830475": 6221,
        "42187000": 6222,
        "Ġ1595280": 6223,
        "44163000": 6224,
        "479001600": 6225,
        "471688328": 6226,
        "685755000": 6227,
        "BCDNMK": 6228,
        "500000000": 6229,
        "74207281": 6230,
        "707645000": 6231,
        "78890012": 6232,
        "78685800": 6233,
        "87905673": 6234,
        "lsnguynlnnhtkh": 6235,
        "103163500": 6236,
        "290646000": 6237,
        "667735000": 6238,
        "withdelims": 6239,
        "223997760": 6240,
        "lmthmnghchbintrnkhong": 6241,
        "TextOrMath": 6242,
        "textregistered": 6243,
        "lsnguynlnnhtkhnglnhn": 6244,
        "626": 6245,
        "Ar": 6246,
        "Rrightarrow": 6247,
        "ag": 6248,
        "cu": 6249,
        "cÄĳ": 6250,
        "huge": 6251,
        "lq": 6252,
        "ÄĲ": 6253,
        "áº": 6254,
        "mark": 6255,
        "pitch": 6256,
        "dotsi": 6257,
        "bfse": 6258,
        "varPsi": 6259,
        "rowvert": 6260,
        "endash": 6261,
        "verb": 6262,
        "ape": 6263,
        "diag": 6264,
        "biguplus": 6265,
        "llcorner": 6266,
        "leqq": 6267,
        "leqno": 6268,
        "black": 6269,
        "textbackslash": 6270,
        "textless": 6271,
        "textendash": 6272,
        "ries": 6273,
        "approxeq": 6274,
        "biggm": 6275,
        "fork": 6276,
        "shape": 6277,
        ").\\\\": 6278,
        "nolimits": 6279,
        "atopwithdelims": 6280,
        "dashv": 6281,
        "footnotemark": 6282,
        "ifx": 6283,
        "root": 6284,
        "subsetneqq": 6285,
        "leftharpoonup": 6286,
        "Ãłm": 6287,
        "club": 6288,
        "5183": 6289,
        "lmthmngbintrnkhong": 6290,
        "Arrowvert": 6291,
        "pitchfork": 6292,
        "bfseries": 6293,
        "diagup": 6294,
        "blacksquare": 6295,
        "clubsuit": 6296,
        "Bre": 6297,
        "CÄĲ": 6298,
        "Ta": 6299,
        "\\&": 6300,
        "\\-": 6301,
        "\\/": 6302,
        "\\-\\": 6303,
        "ble": 6304,
        "ckap": 6305,
        "ever": 6306,
        "eci": 6307,
        "finter": 6308,
        "hÃłm": 6309,
        "ij": 6310,
        "lÃł": 6311,
        "nda": 6312,
        "nmid": 6313,
        "nRightarrow": 6314,
        "nVdash": 6315,
        "rÃ": 6316,
        "rve": 6317,
        "sho": 6318,
        "tsuit": 6319,
        "vÃł": 6320,
        "ymath": 6321,
        "yeq": 6322,
        "£ng": 6323,
        "©c": 6324,
        "ªn": 6325,
        "¿n": 6326,
        "Ã³": 6327,
        "Ġ#": 6328,
        "ĠÄĳ": 6329,
        "ĵng": 6330,
        "Ļt": 6331,
        "Ġ\\^": 6332,
        "Ġ=>": 6333,
        "igarrow": 6334,
        "mathch": 6335,
        "artsuit": 6336,
        "leftrightharpoo": 6337,
        "rightsqu": 6338,
        "Ġtá»": 6339,
        "ĠtrÃ": 6340,
        "Ġmá»": 6341,
        "Ġkho": 6342,
        "ĠcÃ³": 6343,
        "rtmid": 6344,
        "Ġsá»": 6345,
        "sible": 6346,
        "ĠlÃł": 6347,
        "ngeq": 6348,
        "arrayst": 6349,
        "ĠhÃłm": 6350,
        "varpropto": 6351,
        "vartriangle": 6352,
        "varXi": 6353,
        "overwithdelims": 6354,
        "speci": 6355,
        "lineskip": 6356,
        "expa": 6357,
        "Ġ<$": 6358,
        "Ġ<=": 6359,
        "Ġ>=": 6360,
        "texttimes": 6361,
        "textvi": 6362,
        "upshape": 6363,
        "ercase": 6364,
        "retch": 6365,
        "underrightarrow": 6366,
        "arrowright": 6367,
        "owns": 6368,
        "veebar": 6369,
        "backsimeq": 6370,
        "scshape": 6371,
        "boxtimes": 6372,
        "preccu": 6373,
        "lowercase": 6374,
        "trianglelefteq": 6375,
        "Ġbiáº": 6376,
        "thickap": 6377,
        "heartsuit": 6378,
        "circledcirc": 6379,
        "rlyeq": 6380,
        "á»ĵng": 6381,
        "offinter": 6382,
        "curve": 6383,
        "áº£ng": 6384,
        "Breve": 6385,
        "everymath": 6386,
        "ndafter": 6387,
        "shortmid": 6388,
        "ĠÄĳá»ĵng": 6389,
        "mathchar": 6390,
        "leftrightharpoons": 6391,
        "rightsquigarrow": 6392,
        "Ġtá»©c": 6393,
        "ĠtrÃªn": 6394,
        "Ġmá»Ļt": 6395,
        "Ġkhoáº£ng": 6396,
        "Ġsá»ĳ": 6397,
        "siblespace": 6398,
        "arraystretch": 6399,
        "special": 6400,
        "expandafter": 6401,
        "textvisiblespace": 6402,
        "preccurlyeq": 6403,
        "Ġbiáº¿n": 6404,
        "thickapprox": 6405,
        "offinterlineskip": 6406,
        "curvearrowright": 6407
      },
      "merges": [
        "Ġ }",
        "Ġ {",
        "Ġ \\",
        "Ġ _",
        "Ġ ^",
        "Ġ 2",
        "Ġ )",
        "Ġ (",
        "r a",
        "Ġ 1",
        "Ġ =",
        "ra c",
        "f rac",
        "Ġ -",
        "m a",
        "Ġ ,",
        "t h",
        "i g",
        "Ġ +",
        "l e",
        "t a",
        "Ġ 0",
        "ma th",
        "Ġ i",
        "Ġ x",
        "a l",
        "f t",
        "ig h",
        "r igh",
        "i n",
        "a r",
        "m e",
        "le ft",
        "righ t",
        "Ġ n",
        "Ġ .",
        "r m",
        "math rm",
        "Ġ a",
        "p h",
        "Ġ d",
        "a m",
        "Ġ t",
        "Ġ\\ ,",
        "e ta",
        "Ġ m",
        "} {",
        "Ġ 3",
        "Ġ k",
        "t i",
        "d frac",
        "Ġ e",
        "Ġ r",
        "Ġ c",
        "r t",
        "Ġ p",
        "m u",
        "Ġ s",
        "d e",
        "s i",
        "Ġ &",
        "s q",
        "sq rt",
        "p r",
        "Ġ 4",
        "p i",
        "o t",
        "ph a",
        "Ġ l",
        "al pha",
        "l o",
        "Ġ f",
        "d a",
        "d ot",
        "Ġ j",
        "Ġ |",
        "Ġ A",
        "Ġ ~",
        "b f",
        "i me",
        "pr ime",
        "Ġ b",
        "p si",
        "l ta",
        "b da",
        "am bda",
        "c al",
        "= \\",
        "Ġ g",
        "am ma",
        "v e",
        "p ar",
        "Ġ y",
        "Ġ z",
        "ph i",
        "ti al",
        "par tial",
        "Ġ\\ ;",
        "Ġ q",
        "Ġ T",
        "Ġ /",
        "in t",
        "Ġ M",
        "t o",
        "n u",
        "Ġ u",
        "Ġ N",
        "ig ma",
        "l ambda",
        "Ġ B",
        "l a",
        "Ġ R",
        "lo n",
        "Ġ L",
        "math bf",
        "n g",
        "b ar",
        "ra y",
        "ar ray",
        "Ġ S",
        "ng le",
        "Ġ ]",
        "b eta",
        "g a",
        "me ga",
        "s u",
        "Ġ\\ \\",
        "Ġ [",
        "s igma",
        "{ \\",
        "n a",
        "g amma",
        "th eta",
        "q u",
        "c dot",
        "Ġ v",
        "Ġ C",
        "o p",
        "de lta",
        "Ġ D",
        "Ġ P",
        "Ġ F",
        "psi lon",
        "Ġ h",
        "a t",
        "e psilon",
        "h at",
        "Ġ 5",
        "Ġ o",
        "su m",
        "Ġ V",
        "Ġ H",
        "h o",
        "v ar",
        "r ho",
        "Ġ X",
        "l de",
        "Ġ E",
        "ti lde",
        "o w",
        "r ow",
        "ta r",
        "ft y",
        "in fty",
        "e n",
        "na me",
        "e ra",
        "r name",
        "to rname",
        "op era",
        "opera torname",
        "math cal",
        "h i",
        "b e",
        "en d",
        "g in",
        "be gin",
        "a d",
        "Ġ G",
        "tar row",
        "qu ad",
        "Ġ 6",
        "o mega",
        "ve r",
        "o ver",
        "Ġ Q",
        "s t",
        "righ tarrow",
        "} \\",
        "Ġ I",
        "lo g",
        "c o",
        "ta u",
        "b o",
        "Ġ *",
        "bo l",
        "D e",
        "De lta",
        "ra ngle",
        "^ {",
        "g e",
        "y le",
        "st yle",
        "ve c",
        "Ġ K",
        "Ġ 8",
        "a p",
        "me s",
        "ti mes",
        "s p",
        "Ġ U",
        "G amma",
        "x i",
        "d i",
        "l n",
        "Ġ\\ }",
        "la y",
        "sp lay",
        "di splay",
        "display style",
        "l in",
        "lin e",
        "Ġ w",
        "b ig",
        "dot s",
        "Ġ W",
        "s in",
        "m i",
        "- \\",
        "Ġ J",
        "+ \\",
        "co s",
        "s e",
        "p m",
        "la ngle",
        "_ {",
        "l l",
        "Ġ ;",
        "Ġ\\ {",
        "Ġ 7",
        "P hi",
        "var phi",
        "Ġ Z",
        "over line",
        "e x",
        "le q",
        "Ġ <",
        "Ġ :",
        "l i",
        ") \\",
        "} }",
        "t s",
        "Ġ 9",
        "\\ {",
        "L ambda",
        "} }{",
        "O mega",
        ") ^",
        "bol d",
        "} =\\",
        "Ġ\\ !",
        "c hi",
        "; -",
        "var epsilon",
        "li mi",
        "limi ts",
        "Ġ O",
        "Ġ Y",
        "p a",
        "Ġ >",
        "s y",
        "sy m",
        "sym bol",
        "bold symbol",
        "e ll",
        "w i",
        "wi de",
        "{\\ ,",
        "2 0",
        "pr o",
        "l dots",
        "over rightarrow",
        "} =",
        "e qu",
        "i v",
        "equ iv",
        ") =",
        "k ap",
        "kap pa",
        "cdot s",
        "B ig",
        "q quad",
        "( \\",
        "da g",
        "n e",
        "P si",
        "( -",
        "b la",
        "na bla",
        "t ex",
        "se t",
        "1 0",
        "} +",
        "math b",
        "} ^{",
        "\\ }",
        "= -",
        "S igma",
        "ge r",
        "dag ger",
        "mathb b",
        "tex t",
        "c a",
        "ca se",
        "case s",
        "si m",
        "z eta",
        "co lon",
        "Ġ\\ |",
        "ve rt",
        "} ^",
        "r i",
        "ge q",
        "\\ \\",
        "pro x",
        "ap prox",
        "20 1",
        "r c",
        "}{ \\",
        "ex p",
        "c i",
        "ci rc",
        "u p",
        "1 2",
        "big g",
        "o times",
        "wide tilde",
        ") =\\",
        "Ġ !",
        "wide hat",
        "+ (",
        "e r",
        "A B",
        "c up",
        "h bar",
        "}{ -",
        "p er",
        "per p",
        "P i",
        "Ġ\\ :",
        "} ;",
        "} -",
        "r e",
        "} +\\",
        "u s",
        "mi d",
        "pro d",
        "u n",
        "m in",
        "me q",
        "si meq",
        "^ {\\",
        "de r",
        "un der",
        "0 0",
        "su b",
        "e d",
        "w ed",
        "wed ge",
        "ne q",
        "sub set",
        ") :",
        "T h",
        "Th eta",
        "1 6",
        "f o",
        "t ri",
        "_ {\\",
        "' (",
        "ig ne",
        "al igne",
        "aligne d",
        "1 5",
        "ta n",
        "c k",
        "a st",
        ", \\",
        "c ap",
        "ra ll",
        "fo rall",
        "( -\\",
        "math op",
        "p t",
        "1 3",
        "c ri",
        ") ,",
        "1 1",
        "2 5",
        "under line",
        "s f",
        "text rm",
        "b rac",
        "l le",
        "ma tri",
        "matri x",
        "m x",
        "a b",
        "; +\\",
        ") +",
        "201 8",
        "\\ |",
        "= -\\",
        ") ^{",
        "; \\",
        "s tar",
        "s cri",
        "] {",
        "math sf",
        "l us",
        "op lus",
        "n ot",
        "1 4",
        "brac e",
        "min us",
        "}= (",
        "s ta",
        "sta ck",
        "o r",
        "set minus",
        "{ ,",
        "e q",
        "} (",
        "} }\\",
        "' =\\",
        "t frac",
        "= (",
        "re l",
        "| =",
        "201 7",
        "text bf",
        "1 8",
        "} .",
        "{, }",
        "su re",
        "en sure",
        "ensure math",
        "stack rel",
        "var theta",
        "} -\\",
        "[ \\",
        "1 7",
        "B C",
        "2 7",
        "} _{",
        "pr op",
        "prop to",
        "e m",
        "Big g",
        "| \\",
        "ra lle",
        "pa ralle",
        "paralle l",
        "ma x",
        ") -",
        "2 4",
        "p s",
        "ma ps",
        "maps to",
        "Ġ- \\",
        "V e",
        "sin h",
        "scri pt",
        "AB C",
        "Ve rt",
        "A C",
        "f lo",
        "flo or",
        "subset eq",
        "[ -",
        "text style",
        "3 0",
        "m p",
        "b in",
        "o m",
        "bin om",
        "n to",
        "pha nto",
        "phanto m",
        "cos h",
        "par row",
        "li m",
        "u parrow",
        "c e",
        "bold math",
        "' =",
        "2 1",
        "lon g",
        "s h",
        "] }",
        "bigg r",
        "e c",
        "bigg l",
        "{ {",
        "^ \\",
        "} )",
        "{ -",
        "}; \\",
        "S A",
        "f ra",
        "math fra",
        "mathfra k",
        "Big r",
        "Ġ+ \\",
        ") }",
        "Big l",
        "3 2",
        "1 9",
        "Ġ '",
        "to p",
        "ec t",
        "Ġ{ \\",
        "long rightarrow",
        "big r",
        ") .",
        "M N",
        "big l",
        "c ot",
        "a ngle",
        "a x",
        "z e",
        "si ze",
        "Ġ= \\",
        "} ,",
        "}^ {\\",
        "b j",
        "bj ect",
        "3 6",
        "i t",
        "} &",
        "var rho",
        "o dot",
        "v dots",
        ": \\",
        "| +",
        ". \\",
        "d dot",
        "10 0",
        "00 0",
        "r u",
        "{ (",
        "ar row",
        "left rightarrow",
        "s la",
        "| =\\",
        "tri angle",
        "} _",
        "o int",
        "6 0",
        "b ot",
        "201 9",
        "4 0",
        "n o",
        ") (",
        "< \\",
        "script size",
        "ow n",
        "c m",
        "2 6",
        "A D",
        "d own",
        "b u",
        "X i",
        "ru le",
        "S B",
        "lle t",
        "bu llet",
        "x y",
        "co ng",
        "\\ {\\",
        "R igh",
        "Righ tarrow",
        "2 3",
        "sla sh",
        "down arrow",
        "}{ (",
        "S C",
        "ve e",
        "Ġ2 0",
        "r floor",
        "i o",
        "io ta",
        "t in",
        "tin y",
        "\\ ,",
        ") }{",
        "5 0",
        "0 8",
        "b a",
        "] \\",
        "l brace",
        "x q",
        "l floor",
        ")= -",
        "m be",
        "nu mbe",
        "no numbe",
        "nonumbe r",
        ") >",
        "y set",
        "} ,\\",
        "pt yset",
        "em ptyset",
        "Ġ( \\",
        "2 9",
        ". .",
        "L e",
        "ar c",
        "ft rightarrow",
        "Le ftrightarrow",
        "i l",
        "_{ -",
        "big cup",
        "Ġ1 0",
        "3 5",
        "p ts",
        "pt style",
        "cri ptstyle",
        "scri pts",
        "scripts criptstyle",
        "}= (-",
        "2 8",
        "under set",
        "r brace",
        "math it",
        "4 5",
        ",\\ ,",
        "g g",
        "ba ck",
        "back slash",
        "le f",
        "o d",
        "3 4",
        "' \\",
        "lef tarrow",
        "script style",
        "\\\\ &",
        "n d",
        "Ġ( -",
        "c h",
        "ABC D",
        "Ġ- -",
        "^{ -",
        "2 2",
        ")^ {\\",
        "4 8",
        "}= -",
        "_{ [",
        "e ck",
        "ch eck",
        "a ce",
        "sp ace",
        "U psilon",
        "Ġ} {",
        "o bject",
        "ĠO bject",
        "}} +",
        "8 1",
        "6 4",
        "b x",
        "brac k",
        "3 3",
        "}}{ \\",
        "20 20",
        "c frac",
        ") }^{",
        ")= -\\",
        "a c",
        "M B",
        "} <",
        "over set",
        "\\ !",
        ") <",
        "Ġ1 2",
        "arc tan",
        "201 6",
        "- (",
        "C D",
        "}; +\\",
        "under brace",
        "> \\",
        "text up",
        "M A",
        "e xi",
        "st s",
        "exi sts",
        "}^{ -",
        "i math",
        "d dots",
        "la nd",
        "4 9",
        "s ma",
        "= |",
        ")= (",
        "A A",
        "7 5",
        "9 0",
        ") +\\",
        "; -\\",
        "| ^",
        "su p",
        "tex ts",
        "\\ %",
        "}} (",
        "t p",
        "sup set",
        "}. \\",
        "' '",
        ") }^",
        "ma l",
        "Ġ& =",
        "12 5",
        "}} =",
        "& =",
        "6 5",
        "Bigg l",
        "3 9",
        "h line",
        "m od",
        "3 7",
        "_{ [-",
        "Ġ{\\ ,",
        "n or",
        "nor mal",
        "ne g",
        "B D",
        "{ {\\",
        "}} }",
        "( {",
        "3 1",
        "< -",
        "I m",
        "Bigg r",
        "O A",
        "Ġ} _{",
        "5 4",
        "Ġc m",
        "1 20",
        "8 0",
        "d x",
        "\\{ -",
        "R e",
        "l ce",
        "lce il",
        "l vert",
        "Ġ\\ #",
        "b re",
        "e il",
        "rc eil",
        "}; -\\",
        ")^{ -",
        "pm b",
        "=\\ {",
        "7 2",
        "] ^",
        "ĠB C",
        "}+ (",
        "l brack",
        "not in",
        "t t",
        "}} -",
        "= (-\\",
        "}} =\\",
        ", ~",
        "r vert",
        "M C",
        "w p",
        "Ġ_ {",
        "Ġ1 6",
        "x rightarrow",
        "Ġ( -\\",
        "j math",
        "b c",
        ".. .",
        "u psilon",
        "l Vert",
        "text normal",
        "sma ll",
        "big oplus",
        "r Vert",
        "|+ |",
        "L o",
        "A M",
        "a top",
        "i int",
        "var pi",
        "4 1",
        "Lo ng",
        "' )",
        "' ,",
        "da sh",
        "Ġ{ {",
        "3 8",
        "Ġ} \\",
        "lo r",
        "ar p",
        "ti t",
        "pm od",
        "tex tit",
        "] {\\",
        "9 6",
        "= (-",
        "ab c",
        "\\! \\!",
        "' '(",
        "O M",
        "MN P",
        "' }",
        "th in",
        "Ġ20 18",
        "| -",
        "20 21",
        "4 2",
        "Ġ\\ _",
        "s c",
        "Ġ= -",
        "20 0",
        ") ;",
        "v phantom",
        "Ġ\\\\ &",
        "5 6",
        "b i",
        "c x",
        "E F",
        "v dash",
        "texts f",
        "Ġ1 5",
        "O B",
        "Ġ; -",
        "4 4",
        "6 1",
        "ĠA C",
        "di m",
        "|= |",
        "se c",
        "i z",
        "var sigma",
        "\\ ;",
        "b mod",
        ") -\\",
        "a le",
        "ale ph",
        "5 2",
        "5 3",
        "4 3",
        "4 7",
        "6 8",
        "}} }{",
        ";\\ ,",
        ") }\\",
        ", (",
        ", \\\\",
        "9 9",
        "S AB",
        "S D",
        "} (\\",
        "ot not",
        "fo otnot",
        "footnot e",
        "| +\\",
        "â Ģ",
        "bo x",
        ") }{\\",
        "Ġm x",
        "âĢ Ļ",
        "big cap",
        "bre ve",
        "footnote size",
        "5 1",
        "= {",
        "big wedge",
        "mathb in",
        "): \\",
        "arc sin",
        ") ,\\",
        "ge ts",
        "dots c",
        "BC D",
        "+ ...",
        "ĠA B",
        "5 00",
        "ĠA D",
        "100 9",
        "Ġ20 17",
        "thin space",
        "i f",
        "' (-",
        "Ġa x",
        "co th",
        ") )",
        "' }{",
        "6 3",
        "ar ge",
        "_{ (",
        "n t",
        "5 7",
        "Ġ[ -",
        "6 7",
        "B B",
        "O C",
        "[ -\\",
        "r brack",
        "c sc",
        "if f",
        "| _",
        "texts c",
        "8 5",
        "^{ -\\",
        ") |",
        "5 5",
        "S N",
        "), (",
        "Long rightarrow",
        "S BC",
        "sub stack",
        "' .",
        "} >",
        "m box",
        ") }=",
        "6 2",
        "^{ (",
        "e s",
        "Ġ\\ /",
        "10 8",
        "' +",
        "' =-\\",
        "i mp",
        "li es",
        "imp lies",
        "k rightarrow",
        "o krightarrow",
        "ho okrightarrow",
        "7 3",
        "= [",
        "_ \\",
        "x f",
        "Ġ Ġ",
        "Ġ0 00",
        "10 00",
        "pr ec",
        "Ġ+ (",
        "ĠS B",
        "}= -\\",
        "sma sh",
        "6 6",
        "7 7",
        "k er",
        "mi t",
        "}+ {",
        "= {\\",
        "] .",
        "} ;-",
        "Ġ^ {",
        "o o",
        "arp oo",
        "] }{\\",
        "} )^",
        "}\\ \\",
        "& =-",
        ") ]^",
        "): (",
        "th arpoo",
        "a k",
        "bre ak",
        "} |",
        "la p",
        "}} .",
        "( |",
        "7 4",
        "} '",
        "C T",
        "S AC",
        "big triangle",
        "text tt",
        "> -",
        "C A",
        "O x",
        "\\ ,\\",
        "^ +",
        "ln ot",
        "Ġ\\{ -",
        "12 8",
        "{{ {",
        "re f",
        "Ġ \"",
        "9 7",
        "} )\\",
        "}} ;\\",
        "sh arp",
        "o nd",
        "am ond",
        ") ]",
        "B AC",
        "C C",
        "I J",
        "N N",
        "S M",
        "t e",
        "Ġ ?",
        "Ġ1 3",
        "}{ {",
        "ĠC D",
        "36 0",
        "9 8",
        ") {\\",
        "9 5",
        "M D",
        "}\\ ,",
        "}} +\\",
        "14 4",
        "+... +",
        "' }=\\",
        "S O",
        "a y",
        "Ġ\\ %",
        "big vee",
        "}}{ {",
        "7 0",
        "u te",
        "Ġ= -\\",
        "ac ute",
        "di amond",
        "! }",
        "O y",
        "dot eq",
        "st ru",
        "sla nt",
        "Long leftrightarrow",
        "stru t",
        "ar g",
        "B o",
        "Bo x",
        "' =-",
        "5 8",
        "6 00",
        "b y",
        "| }",
        "Ġ2 5",
        "ĠS C",
        "15 0",
        ")^{ -\\",
        "righ tharpoo",
        "r lap",
        "sq cup",
        "' -",
        "4 6",
        "7 6",
        "8 2",
        "i iint",
        "Ġ1 1",
        "25 0",
        "SC D",
        "de g",
        "supset eq",
        "2 16",
        "4 00",
        "D C",
        "Ġ) \\",
        "ĠS A",
        "}} ^",
        "Ġ1 4",
        "' =(",
        "0 1",
        "9 1",
        "B h",
        "s b",
        "math tt",
        "=\\ {-",
        "em ph",
        "7 8",
        "^ -",
        "s k",
        "{ )}^{",
        "Ġ `",
        "}} -\\",
        "long leftrightarrow",
        "SA D",
        "nu p",
        ") ,\\,",
        "O xy",
        "i p",
        "| .",
        "} (-",
        "{\\ ;",
        "}\\ }",
        "sk ip",
        "rightharpoo nup",
        "big otimes",
        ") )=",
        "A H",
        "l arge",
        "in g",
        "Ġa b",
        "long mapsto",
        "n i",
        ") +(",
        "B A",
        "N C",
        "r ing",
        "{ |",
        "math ring",
        "Ġ; +\\",
        "8 8",
        "I I",
        "S S",
        "ĠB D",
        ",\\ ,\\",
        "Ġ20 19",
        "f i",
        "lo w",
        ". }",
        "3 00",
        "5 9",
        "A SB",
        "} <\\",
        "al low",
        ")\\ ,",
        "25 6",
        "{, }\\",
        "AC D",
        "SB D",
        "allow break",
        "A N",
        "c c",
        "su cc",
        "over brace",
        "bigtriangle up",
        "= {{",
        "b b",
        "} >\\",
        "Ġ} }",
        "Ġ_ {\\",
        "Ġ2 4",
        "Ġ1 00",
        "}{ {\\",
        "Ġ4 5",
        "}^ *",
        ")> \\",
        "^+ }",
        "var Delta",
        ") <\\",
        "6 25",
        "O O",
        "{ -\\",
        "Ġ1 8",
        "Ġb x",
        "en space",
        "Ġ6 0",
        "20 00",
        "}- (",
        "Ġ| \\",
        "' \\\\",
        ") }=\\",
        "+ {(",
        "L arge",
        "S H",
        "c z",
        "Ġ) ^",
        "}{ |",
        "ĠA BC",
        "10 5",
        "pr ot",
        "prot ect",
        "B M",
        "B AD",
        "C B",
        "Ġ2 7",
        "18 0",
        "AC B",
        "Ġx f",
        "! }{",
        "' }=",
        "; +",
        "< -\\",
        "O N",
        "m z",
        "y i",
        "| (",
        "leq slant",
        "201 5",
        "AB D",
        "MNP Q",
        "fi ll",
        "di v",
        ") |\\",
        "+ {\\",
        "6 9",
        "8 4",
        "8 7",
        "B N",
        "B bb",
        "N M",
        "h fill",
        "| {",
        "ĠS D",
        "}} ^{\\",
        "00 00",
        "16 0",
        "\\!\\! \\!\\!",
        ") )=\\",
        "+ |",
        "D A",
        "h dots",
        "m y",
        "| -\\",
        "Ġ= (",
        "^ *",
        "o minus",
        "10 1",
        ") }(",
        "8 3",
        "8 6",
        "8 00",
        "9 3",
        "n x",
        "{ .}",
        "Ġ} =\\",
        "Ġ4 0",
        ")= +\\",
        "). \\",
        "triangle q",
        "d dagger",
        ") '=",
        "7 1",
        "I A",
        "a z",
        "| <",
        "| _{\\",
        "Ġd x",
        "over leftarrow",
        "_{ }",
        ")= |",
        "}' {",
        "m o",
        "math or",
        "math strut",
        "sq cap",
        "nu ll",
        "mo de",
        "mathor d",
        "var no",
        "thin g",
        "varno thing",
        "& \\!\\!\\!\\!",
        "( {\\",
        ") ]\\",
        ", -",
        "2 25",
        "9 4",
        "ta g",
        "Ġr l",
        "ĠA A",
        "ĠR h",
        ")\\ \\",
        "}} }\\",
        "}+ {\\",
        "\\\\ \\",
        "11 9",
        "}}+ {{",
        "l s",
        "r o",
        "Ġ @",
        "big star",
        "under bar",
        ") (\\",
        "A MN",
        "H K",
        "S I",
        "S h",
        "t er",
        "{ [",
        "| }{",
        "~ (",
        "Ġ\\ &",
        "Ġ) =",
        "Ġ3 2",
        "Ġ3 6",
        "Ġ\\\\ \\",
        "40 36",
        "> -\\",
        "mode ls",
        "= (\\",
        "N D",
        "P Q",
        "[ (",
        "d y",
        "f la",
        "s l",
        "u v",
        "Ġ{ -",
        ",\\ ;",
        "BC C",
        "\\% /",
        "^- }",
        "fla t",
        "cdot p",
        "d m",
        ") ?",
        ". {",
        "5 12",
        "8 9",
        "9 2",
        "A G",
        "C N",
        "O z",
        "l lde",
        "nu llde",
        "}} ,",
        ")^ \\",
        "limi ter",
        ")- (",
        "24 0",
        "'' '",
        "ker n",
        "nullde limiter",
        "nulldelimiter space",
        "l g",
        "math rel",
        "Ġ\\, \\",
        "un boldmath",
        ") }+",
        "1 12",
        "A E",
        "A K",
        "N B",
        "N S",
        "b z",
        "m n",
        "} )^{",
        "Ġ6 4",
        "}} >",
        "}} }{\\",
        "Ġ9 0",
        "}+ ...",
        "13 5",
        "100 8",
        "Ġ20 20",
        "C M",
        "} /",
        "Ġ. ..",
        "' ;",
        ") )^",
        "0 5",
        "1 15",
        "7 9",
        "= [-",
        "B SC",
        "K D",
        "] ,",
        "Ġ3 5",
        "ĠA BCD",
        "ĠO B",
        "ĠO y",
        "): \\,",
        "}) }{",
        "}\\\\ &",
        "1 10",
        "\\ :",
        "] =",
        "14 0",
        "ro up",
        "j lim",
        "me d",
        ") }}",
        ") '=\\",
        ") !}",
        "A I",
        "A P",
        "C P",
        "O AB",
        "\\ #",
        "| >",
        "} )=",
        "} _{\\",
        "~ \\",
        "Ġ} ^",
        "Ġ} {\\",
        "Ġ) ^{",
        "Ġ\\, (",
        "ĠM N",
        "_{ _",
        "Ġ; \\",
        "10 4",
        "24 3",
        "xy z",
        "dots b",
        "g roup",
        "u le",
        "se arrow",
        "Ġ-- -",
        "D B",
        "} |=",
        "Ġ} _{\\",
        "Ġ\\ {\\",
        "Ġ2 1",
        "Ġ3 0",
        ")= {\\",
        "10 3",
        "16 9",
        "13 0",
        "]{ (",
        "med skip",
        "c s",
        "cs name",
        "fo nt",
        "normal font",
        "prec eq",
        ") |=",
        "C SA",
        "M P",
        "O I",
        "] ^{",
        "a f",
        "c b",
        "k hi",
        "| ^{",
        "} ]",
        "Ġ+ {(",
        "sq subseteq",
        "=\\ {(",
        "^{ |",
        ")\\ ,\\",
        "}} <",
        "}}{ (",
        "10 2",
        "10 9",
        "}- {",
        ",\\ !",
        "eq ref",
        "|= |\\",
        "19 2",
        "triangle left",
        "34 3",
        "48 0",
        "bigtriangle down",
        "Ox z",
        "IJ K",
        "}/ \\",
        "V dash",
        "10 7",
        "12 1",
        "' :\\",
        "c d",
        "subset neq",
        "! }{(",
        ") }^{\\",
        ", +\\",
        ", (\\",
        "- {",
        ". (",
        "0 7",
        "2 20",
        "3 24",
        "= {{\\",
        "I C",
        "b d",
        "k m",
        "Ġ{ -\\",
        "Ġ1 7",
        "Ġd m",
        "^{ ^{\\",
        "Ġ< -",
        "}} ^{",
        "\\{ -\\",
        "Ġ> \\",
        "20 8",
        "10 10",
        "10 24",
        "\\} .",
        "geq slant",
        "12 4",
        "): -",
        "13 6",
        "14 5",
        "no break",
        "Oy z",
        "Ġ5 4",
        "Ġp t",
        "' >",
        "' }\\",
        "' '=",
        ") {",
        "0 6",
        "D D",
        "S ABC",
        "\\ ;\\",
        "` `",
        "| }{\\",
        "} [",
        "Ġ\\; {\\",
        "en skip",
        "_{ -\\",
        "20 22",
        "10 6",
        "}^ \\",
        "12 3",
        "14 7",
        "24 00",
        "30 4",
        "}& (",
        "40 34",
        "26 5",
        "\\, (",
        "28 9",
        "}}+ {{\\",
        "'' '(",
        "âĢĻ (",
        "Oxy z",
        "^* }",
        "a sym",
        "ra l",
        "Ġb i",
        "asym p",
        "' <",
        "' }}{",
        "' (\\",
        "0 2",
        "4 000",
        "5 000",
        "A SC",
        "B H",
        "G G",
        "I B",
        "| }^",
        "| <\\",
        "Ġ1 20",
        "Ġr h",
        "ĠR l",
        "ĠS AB",
        "Ġ: \\",
        "}} }}",
        "}^{ {",
        "12 6",
        "12 7",
        "16 2",
        "15 3",
        "13 3",
        "), ~",
        "AC C",
        "19 0",
        "SC A",
        "},\\ ,",
        "28 0",
        "28 8",
        "|- |",
        ")] =",
        "}+... +\\",
        "up per",
        "upper case",
        "' '\\",
        ") ;\\,",
        "- |",
        "2 15",
        "3 20",
        "3 50",
        "3 75",
        "7 25",
        "= &",
        "= &\\!\\!\\!\\!",
        "A OB",
        "H B",
        "I M",
        "M K",
        "O MN",
        "S P",
        "m t",
        "{ [-",
        "| )",
        "Ġa d",
        "Ġ\\, \\,",
        "Ġc x",
        "Ġ5 0",
        "\\{ {",
        "ĠO C",
        "ĠO x",
        "20 7",
        "201 4",
        "16 4",
        "16 5",
        "16 8",
        "11 7",
        "SB A",
        "Ġ20 16",
        "+... +\\",
        "&\\!\\!\\!\\! =&\\!\\!\\!\\!",
        "d ddot",
        "var pro",
        "text sub",
        "15 6",
        "arrow vert",
        "varpro jlim",
        "textsub script",
        "l dot",
        "eq no",
        "succ eq",
        "' }+\\",
        ") }}{",
        ") }-",
        "+ }",
        "2 10",
        "2 11",
        "3 15",
        "4 49",
        "5 45",
        "9 00",
        "A MB",
        "A EF",
        "D N",
        "H A",
        "I H",
        "M I",
        "a a",
        "{ (\\",
        "| |",
        "| _{",
        "} )=\\",
        "} :\\",
        "} |=\\",
        "Ġ} ^{",
        "Ġ^ \\",
        "Ġ2 6",
        "Ġ) :",
        "Ġ= \\{",
        "Ġk f",
        "=\\ {\\",
        "ĠM C",
        "su it",
        "_{ _{",
        "ne arrow",
        "AB B",
        ";\\ ;",
        "17 0",
        "17 6",
        "27 0",
        "27 2",
        "24 2",
        "24 5",
        "40 35",
        "23 8",
        "29 0",
        "35 4",
        "'' +",
        "') )",
        "+... +(",
        "ldot p",
        "n s",
        "P r",
        "a mal",
        "t u",
        "na tu",
        "long leftarrow",
        "amal g",
        "natu ral",
        "& =\\",
        ") }+\\",
        ") }{(",
        "- {\\",
        "3 25",
        "4 50",
        "8 40",
        "A O",
        "C EF",
        "I V",
        "M G",
        "M Q",
        "N P",
        "P N",
        "\\ }\\",
        "b t",
        "r d",
        "} '=\\",
        "Ġ{ {\\",
        "Ġ) =\\",
        "}{ {{",
        "Ġ| ^",
        "ĠM B",
        "su rd",
        "}\\ ,\\",
        "_{ (-",
        "ĠO N",
        "ĠO z",
        ")= {",
        "=- {",
        "16 00",
        "11 4",
        "25 2",
        "25 3",
        "27 8",
        "}) .",
        "};\\ ,",
        "19 9",
        "MN C",
        "40 38",
        "AD C",
        "lef tharpoo",
        "\\\\& (",
        "({ -\\",
        "),\\ ;",
        "57 6",
        "diamond suit",
        "II I",
        "6 24",
        "l lap",
        "ne r",
        "13 7",
        "d s",
        "o un",
        "p oun",
        "right leftharpoo",
        "Ġm m",
        "triangle right",
        "poun ds",
        "rightleftharpoo ns",
        "\" (",
        "( {-",
        ") }.",
        "+ {",
        "0 3",
        "0 4",
        "2 12",
        "4 12",
        "7 29",
        "7 0000",
        "9 60",
        "= +\\",
        "= |\\",
        "G H",
        "G M",
        "H C",
        "H D",
        "M H",
        "M ax",
        "Y Z",
        "e box",
        "k ebox",
        "v line",
        "{ }^\\",
        "| )=",
        "¿ ½",
        "ï ¿½",
        "Ġ ï¿½",
        "Ġ} }\\,",
        "Ġ\\ -",
        "Ġ) }",
        "Ġ1 9",
        "ma kebox",
        "Ġx y",
        "Ġ. \\",
        "}{ (\\",
        "Ġ& -",
        "Ġ& \\",
        "sq u",
        "ĠS BC",
        "ĠC A",
        "var Omega",
        "var Sigma",
        "}\\ !",
        "}\\ ,(",
        "Ġ< \\",
        ")\\ ;",
        "}} ;",
        "}} >\\",
        "20 5",
        "20 10",
        "12 2",
        "AB M",
        "16 1",
        "), (\\",
        "11 8",
        "14 3",
        "18 5",
        "Ve c",
        "SB N",
        "23 4",
        "48 6",
        "}< |",
        ")< {",
        "CD D",
        "200 9",
        "); (",
        ";\\, -",
        ")}\\ ,",
        "})\\ \\",
        ")\\\\ &",
        "s s",
        "ar e",
        "Ġe x",
        "squ are",
        "end csname",
        "dots m",
        "small setminus",
        "! \\",
        "' ^",
        "' )^",
        "( *",
        ") '",
        ") }}\\",
        ", }\\",
        "1 13",
        "2 17",
        "5 21",
        "6 20",
        "6 45",
        "6 48",
        "6 72",
        "7 50",
        "; (",
        "= {(",
        "A MNP",
        "B F",
        "B EF",
        "C E",
        "D E",
        "F E",
        "F G",
        "G E",
        "I K",
        "K L",
        "M M",
        "N A",
        "O D",
        "O P",
        "P A",
        "S E",
        "S K",
        "a h",
        "b ow",
        "h phantom",
        "s mi",
        "x e",
        "| }+",
        "} ?",
        "} )-",
        "Ġ{ (",
        "Ġ\\ *",
        "Ġ2 8",
        "Ġ( (",
        "Ġ= {\\",
        "math c",
        "Ġi z",
        "Ġk m",
        "ti e",
        "Ġ4 00",
        "Ġ~ \\",
        "ĠB h",
        "ĠS S",
        "Ġ5 00",
        "co prod",
        "}} }+",
        "}}{ -",
        "20 25",
        "}= {",
        "}= (-\\",
        ")= (-",
        "AB N",
        "00 5",
        "00 000",
        "]{ {",
        "14 8",
        "18 4",
        "18 7",
        "18 8",
        "17 1",
        "17 5",
        "17 7",
        "BC NM",
        "27 5",
        "40 5",
        "50 3",
        "50 4",
        ",\\, (",
        "\\! ,",
        "'' (\\",
        "120 0",
        "âĢĻ =",
        "01 15",
        "AH K",
        "bow tie",
        "smi le",
        "' :",
        "big m",
        "big sqcup",
        "14 1",
        "o slash",
        "}} =-",
        "up lus",
        "! .",
        "' +\\",
        ") )\\",
        ") !}{",
        "0 32",
        "2 30",
        "2 60",
        "3 36",
        "3 45",
        "4 30",
        "4 40",
        "5 90",
        "7 20",
        "= ~",
        "B K",
        "B MD",
        "C AB",
        "E D",
        "I AB",
        "O F",
        "O H",
        "P D",
        "T i",
        "[ {",
        "\\ }}",
        "] }=",
        "a i",
        "d B",
        "f row",
        "r times",
        "x a",
        "x Oy",
        "| ,",
        "| .\\",
        "} '(",
        "} )+",
        "Ġ} }{",
        "Ġ} }\\",
        "Ġ2 2",
        "Ġ2 3",
        "Ġ2 00",
        "Ġ2 81",
        "Ġ) +",
        "Ġ- (",
        "math in",
        "Ġ3 4",
        "Ġc z",
        "de t",
        "Ġ4 8",
        "lo se",
        "Ġ| =",
        "Ġ| _",
        "ĠA CD",
        "ĠB B",
        "ĠB N",
        "Ġ] \\",
        "ĠP Q",
        "}\\ ;\\",
        "_{ (-\\",
        "Ġ7 2",
        ")\\ }",
        "}} )",
        "}} <\\",
        "20 48",
        "}= {{",
        "}^{ -\\",
        "12 9",
        "00 4",
        "16 3",
        "15 2",
        "15 4",
        "15 5",
        "mathop en",
        "13 2",
        ";\\ ,\\",
        "}. {",
        "BC A",
        "}_{ (",
        "}_{ (\\",
        "24 6",
        "AC M",
        "{{ {\\",
        "19 6",
        "MN Q",
        "no tag",
        "AD F",
        "Ġ20 21",
        "28 5",
        "34 6",
        "64 6",
        "'' -",
        "neg thinspace",
        "54 2",
        ",~ \\",
        "^+ _",
        "NN NN",
        "^- _",
        "mathc lose",
        "Ti lde",
        "frow n",
        "mathin ner",
        "m d",
        "th i",
        "in jlim",
        "int er",
        "la x",
        "var injlim",
        "text md",
        "re lax",
        "11 1",
        "f il",
        "h fil",
        "x leftarrow",
        "over leftrightarrow",
        "thi ck",
        "inter cal",
        "! (",
        "& >",
        "' |",
        "' }(",
        ") }=(",
        ") }-\\",
        ") |=\\",
        ") |-",
        ") ~\\",
        "+ {{\\",
        "1 16",
        "2 32",
        "3 13",
        "3 30",
        "3 32",
        "4 20",
        "4 32",
        "5 29",
        "6 75",
        "6 67",
        "7 00",
        "7 26",
        "7 68",
        "8 15",
        "9 28",
        "< |",
        "A F",
        "A MC",
        "B E",
        "B G",
        "B I",
        "B P",
        "B MC",
        "C SB",
        "D BC",
        "H E",
        "K B",
        "M AB",
        "M BC",
        "O S",
        "O BC",
        "O ABC",
        "P C",
        "P M",
        "Q C",
        "T T",
        "] =\\",
        "] }\\",
        "] =(",
        "d t",
        "g t",
        "h B",
        "k x",
        "l se",
        "y z",
        "| {\\",
        "| }\\",
        "| =-",
        "| >\\",
        "} ~(",
        "~ =~",
        "Ġ\\ '",
        "Ġ) .",
        "Ġ) =-",
        "Ġn x",
        "Ġ| =\\",
        "ĠA N",
        "Ġb c",
        "Ġb y",
        "Ġb z",
        "ĠM A",
        "ĠN SS",
        "ĠS SN",
        "Ġ[ \\",
        "ĠD N",
        "Ġh r",
        "Ġ6 1",
        "ĠI AB",
        "^{ '}(",
        "Ġ8 1",
        "}} }=",
        "}} ,\\",
        "}} :\\",
        "}} .\\",
        "Ġ9 6",
        "}}{ {\\",
        "}}{ {(",
        ")^ -",
        "Ġ> -",
        "20 4",
        "20 24",
        "20 35",
        "}= +\\",
        "10 000",
        "}^{ {{",
        "\\} ,",
        "=- {{",
        "00 65",
        "15 00",
        "13 4",
        "13 9",
        "13 50",
        "25 00",
        "14 6",
        "14 9",
        "17 25",
        "BC E",
        "BC MN",
        "|\\ ,",
        "24 8",
        "24 50",
        "30 9",
        "19 5",
        "}, ...",
        "36 9",
        "40 40",
        "26 9",
        "AD D",
        "23 9",
        "SC B",
        "SC MN",
        "29 3",
        "45 5",
        "ABCD EF",
        "CD M",
        "}}}{ {",
        ";\\, +\\",
        "ĠĠ ĠĠ",
        "NN S",
        "^- }\\",
        "SS S",
        ")\\, |\\,",
        "Ġ100 9",
        "}+... +",
        "D own",
        "h e",
        "mp eq",
        "bu mpeq",
        "^* }\\",
        "Down arrow",
        "U parrow",
        "e fo",
        "g cd",
        "o he",
        "t w",
        "w arrow",
        "th er",
        "le me",
        "ad rightarrow",
        "co mp",
        "wi th",
        "small skip",
        "efo re",
        "ohe adrightarrow",
        "tw oheadrightarrow",
        "ther efore",
        "leme nt",
        "comp lement",
        "' +(",
        "* )",
        "+ (\\",
        ", }",
        ", -\\",
        ", ...",
        "- {{",
        ". {\\",
        ". .\\",
        "0 9",
        "0 17",
        "0 68",
        "2 23",
        "2 278",
        "3 11",
        "3 000",
        "3 40",
        "3 80",
        "5 20",
        "5 13",
        "5 40",
        "5 75",
        "6 000",
        "6 80",
        "7 000",
        "8 44",
        "9 75",
        "9 37",
        "; {",
        "B MN",
        "D I",
        "D P",
        "D Q",
        "D AB",
        "E C",
        "F C",
        "F H",
        "H at",
        "I F",
        "I O",
        "I BC",
        "K I",
        "M S",
        "M ON",
        "N r",
        "N SN",
        "O G",
        "P B",
        "Q B",
        "S a",
        "[ {\\",
        "[ ]{",
        "[ {-",
        "] }{",
        "] }^",
        "] =(-",
        "d le",
        "g ra",
        "m c",
        "n y",
        "x F",
        "x b",
        "y x",
        "y y",
        "z x",
        "{ (-",
        "| )\\",
        "} :",
        "Ã ł",
        "Ġ) ^{\\",
        "Ġ1 44",
        "Ġ1 250",
        "ft er",
        "Ġa c",
        "}{ {{\\",
        "Ġ3 80",
        "Ġ4 9",
        "ĠM P",
        "ĠN P",
        "ĠB CD",
        "ĠS N",
        "ĠS h",
        "ĠS SS",
        "Ġ] .\\",
        "ĠC C",
        "ĠD C",
        "ĠD M",
        "Ġ6 00",
        "Ġ6 840",
        "ĠK C",
        "}} }}{",
        "}} }=\\",
        "}} }^",
        "}} =(",
        ")^ +}",
        "ĠO P",
        "ĠO MM",
        "20 23",
        "}= [-",
        "201 2",
        "201 3",
        "AB I",
        "}; +",
        "mid dle",
        "): {(",
        "16 7",
        "16 35",
        "15 12",
        "13 1",
        "]{ -",
        "14 40",
        "}}\\ \\",
        "18 9",
        "{{ (",
        "}) }^{",
        "32 3",
        "19 1",
        "). ..\\",
        ":\\ ;",
        "40 3",
        "40 39",
        "23 3",
        "23 5",
        "}{( {",
        ")}{ {(",
        "},\\ ,\\",
        "arc cos",
        "28 3",
        "ABCD MNP",
        "33 3",
        "75 00",
        "90 725",
        "'' '\\",
        "37 0",
        "BD A",
        "BD C",
        "') )=",
        "') )=\\",
        "38 4",
        "200 1",
        "200 7",
        "\\; (",
        ")}\\ :\\",
        "âĢĻ )",
        "57 0",
        "67 6",
        "SN N",
        "77 7",
        "^+ }{\\",
        "Ġ\\% /",
        "76 9",
        "AH B",
        ",\\,\\ ,\\",
        "}^* \\",
        "106 40",
        "545 27",
        "}\\! \\!\\!",
        "(* )\\",
        "SCMN KL",
        "gra ve",
        "90725 500",
        "a e",
        "a fter",
        "b group",
        "e group",
        "e lse",
        "n ce",
        "n down",
        "le d",
        "le ss",
        "sq supseteq",
        "int op",
        "su per",
        "var Lambda",
        "big circ",
        "text super",
        "ca nce",
        "circ led",
        "rightharpoo ndown",
        "after group",
        "textsuper script",
        "cance l",
        "f tarrow",
        "operatorname with",
        "text circled",
        "normal size",
        "operatornamewith limits",
        "! }{\\",
        "& <",
        "& \\",
        "' )\\",
        "' }^",
        "' )=\\",
        "' '=\\",
        "' |=",
        "' }}=",
        ") )=-\\",
        ") '''",
        ") !\\",
        "* }",
        "- {{\\",
        "- ...",
        ". \\\\",
        ". ;\\",
        "0 23",
        "1 100",
        "2 13",
        "2 24",
        "2 21",
        "2 36",
        "2 29",
        "2 28",
        "2 200",
        "3 27",
        "3 34",
        "3 90",
        "4 16",
        "4 25",
        "4 23",
        "4 48",
        "4 62",
        "4 272",
        "5 60",
        "5 50",
        "5 54",
        "5 97",
        "6 15",
        "6 18",
        "6 30",
        "6 40",
        "6 50",
        "6 97",
        "7 35",
        "7 93",
        "8 10",
        "8 08",
        "8 75",
        "8 41",
        "9 000",
        "9 26",
        ": +\\",
        ": (\\",
        "< (",
        "= {-",
        "A x",
        "B ar",
        "C F",
        "C H",
        "C MN",
        "D M",
        "D MN",
        "E G",
        "E OF",
        "G A",
        "H M",
        "H BC",
        "I D",
        "J C",
        "K A",
        "M E",
        "M AC",
        "M CD",
        "S Q",
        "S MN",
        "S MC",
        "X YZ",
        "\\ ,\\,(",
        "] .\\",
        "a ab",
        "b ch",
        "k h",
        "n N",
        "n m",
        "q x",
        "s warrow",
        "| }=",
        "} ),",
        "} '\\",
        "} )^{\\",
        "} |+|",
        "} |=|",
        "~ (\\",
        "Ġ al",
        "Ġ} :\\",
        "Ġ^ {\\",
        "Ġ) }}",
        "Ġ( *)",
        "Ġ+ |",
        "Ġx dx",
        "}{ {(",
        "Ġ3 1",
        "Ġ3 3",
        "Ġ3 51",
        "Ġ4 7",
        "ĠA BD",
        "Ġ\\; (",
        "ĠM D",
        "Ġu v",
        "ĠR a",
        "ĠS O",
        "Ġ] }",
        "{\\ {",
        "ĠD D",
        "ĠD O",
        "Ġh R",
        "Ġ5 5",
        "Ġ5 20",
        "}\\ :(\\",
        "ll l",
        "Ġ; -\\",
        "Ġ7 5",
        "}} \"",
        "}} (\\",
        "}} +(",
        "Ġ9 00",
        "\\{ (",
        "{\\, \\",
        "20 3",
        "20 30",
        "20 08",
        "}= {\\",
        "10 21",
        "10 23",
        "10 34",
        "10 37",
        "12 45",
        "12 304",
        "AB O",
        "AB S",
        "AB MN",
        "AB NM",
        "AB KD",
        "00 6",
        "16 000",
        ",\\ :",
        "13 13",
        "13 72",
        "13 44",
        "25 1",
        ")+ (\\",
        ";\\ ;\\",
        "14 58",
        "}( (",
        "}}\\ ,",
        "18 1",
        "17 2",
        "17 9",
        "17 12304",
        "BC M",
        "27 3",
        "24 4",
        "ABC M",
        "ABC MNC",
        "]} [",
        "}) }",
        "SA I",
        "SA M",
        "32 2",
        "32 6",
        "32 8",
        "19 68",
        "). ..",
        "MN E",
        "}, -",
        "}, ~",
        "36 1",
        "36 3",
        "36 5",
        "36 8",
        "36 00",
        "|+ |\\",
        "100 1",
        "100 6",
        "60 54",
        "40 33",
        "40 37",
        "40 96",
        "26 1",
        "26 2",
        "\\, ,",
        "50 5",
        ")> -",
        "28 1",
        "45 00",
        "\\\\& \\",
        "\\\\& -\\",
        "48 1",
        "64 2",
        ")}^{ {",
        "MB KD",
        "\\% .",
        "'' )^",
        "'' '=\\",
        "'' '=",
        "'' '=-\\",
        "125 8",
        "65 61",
        "39 7",
        "BD D",
        "Ġ}_{ {{",
        "54 36",
        "120 29",
        "80 90",
        "=\\{ -\\",
        "); ~",
        "EF GH",
        "|=| (",
        "\\; (\\",
        "43 00",
        "99 9",
        "SD A",
        "SD C",
        "),\\ ,\\",
        "57 8",
        "}> {",
        "ĠĠ Ġ",
        "66 6",
        "Ġ^{ -\\",
        "}\\, {\\",
        "91 125",
        "\\!\\!\\!\\! \\!,",
        "119 51",
        "}}+{{ (",
        "AMN D",
        "Ġ... ,",
        "AI B",
        "':\\ ;",
        "&\\!\\!\\!\\!=&\\!\\!\\!\\! -",
        "412 12029",
        "}\\! \\!\\!\\!\\!\\!,",
        "590 49",
        "thick sim",
        ")^- }",
        "},... ,\\",
        "}\\!\\!\\! \\!,",
        "less sim",
        "d dag",
        "v rule",
        "math normal",
        "var Gamma",
        "Big m",
        "D a",
        "c l",
        "f box",
        "v i",
        "v Da",
        "w r",
        "Ġi n",
        "bar wedge",
        "Ġv Ãł",
        "var Pi",
        "be th",
        "display limits",
        "vDa sh",
        "% )",
        "' -\\",
        "' }}",
        "' },",
        "( (",
        "( (\\",
        "( {{",
        ") !",
        ") [",
        ") }=(-",
        "* }}",
        "+ [",
        ", {",
        ". {{",
        "0 16",
        "0 25",
        "1 201",
        "2 14",
        "2 18",
        "2 27",
        "2 26",
        "2 250",
        "2 304",
        "2 187",
        "3 12",
        "3 14",
        "3 18",
        "3 21",
        "3 19",
        "3 125",
        "3 200",
        "4 15",
        "4 13",
        "4 24",
        "4 21",
        "4 60",
        "4 35",
        "4 45",
        "4 64",
        "4 63",
        "4 67",
        "5 25",
        "5 27",
        "5 24",
        "5 30",
        "5 26",
        "5 28",
        "5 33",
        "5 65",
        "5 80",
        "5 53",
        "5 99",
        "6 21",
        "6 36",
        "6 65",
        "7 18",
        "7 30",
        "7 08",
        "7 98",
        "8 20",
        "8 16",
        "8 17",
        "8 000",
        "8 68",
        "8 62",
        "8 1000",
        "8 78",
        "9 25",
        "9 90",
        "9 47",
        "9 85",
        "; (\\",
        "; {{",
        "A R",
        "B O",
        "B Q",
        "B x",
        "B y",
        "B AA",
        "B MNP",
        "B OC",
        "C I",
        "C AD",
        "C OA",
        "C MNP",
        "D F",
        "D i",
        "D EF",
        "E B",
        "E M",
        "E N",
        "E HK",
        "G T",
        "H N",
        "I N",
        "I S",
        "I OM",
        "J A",
        "J K",
        "K M",
        "K N",
        "L AR",
        "M F",
        "M J",
        "N F",
        "N Q",
        "S F",
        "S G",
        "X A",
        "] +",
        "] >",
        "] ^{\\",
        "a n",
        "a v",
        "b g",
        "b xy",
        "d o",
        "h z",
        "i y",
        "m f",
        "n r",
        "n nu",
        "p x",
        "r h",
        "v dt",
        "x z",
        "z y",
        "z z",
        "| )-",
        "| -(",
        "| }{|",
        "} |\\",
        "Â °",
        "Ġ '(",
        "Ġ} ,",
        "Ġ} =",
        "Ġ} }={{",
        "Ġ^ {-",
        "Ġ2 9",
        "Ġ2 56",
        "Ġ1 48",
        "Ġ1 56",
        "Ġ= (-",
        "Ġ- {",
        "Ġ- |",
        "ma nnu",
        "Ġ, \\",
        "me ral",
        "Ġa R",
        "Ġa z",
        "Ġm y",
        "Ġ3 9",
        "Ġc d",
        "Ġ& =\\",
        "Ġ4 3",
        "Ġ4 000",
        "Ġ| +",
        "ĠA E",
        "Ġb d",
        "ĠM Q",
        "ĠN NN",
        "ng min",
        "ng vi",
        "ĠS a",
        "{\\ {-",
        "ĠC H",
        "ĠC I",
        "ĠC P",
        "ĠD B",
        "Ġ5 3",
        "Ġ5 6",
        "ĠG I",
        "Ġ6 3",
        "Ġ6 5",
        "Ġ6 6",
        "}\\ ;",
        "^{ +",
        "^{ ^{-\\",
        "^{ *}}",
        "big odot",
        "_{ _{\\",
        "Ġ\\{ -\\",
        "Ġ7 7",
        "Ġ7 9",
        ")\\ !",
        "}} :",
        "}} }-",
        "}} ;+\\",
        "}} }}\\",
        "}} },",
        "}} },\\",
        "}} -(",
        "Ġ9 9",
        "}}{ {{",
        "ĠO AB",
        "ĠO BC",
        "Ġ> -\\",
        "20 2",
        "20 32",
        "20 000",
        "20 40",
        "20 29",
        "20 28",
        "20 34",
        "20 39",
        "20 42",
        "}= |",
        ")= {{",
        "10 11",
        "10 18",
        "10 17",
        "10 80",
        "}+ |",
        "}+ {{",
        "}+ ..",
        "}+ ({",
        "}^{ +}",
        "=- |",
        "12 80",
        "12 72",
        "AB F",
        "AB H",
        "AB EF",
        "AB ND",
        "}; {",
        "): {\\",
        "16 6",
        "16 40",
        "16 80",
        "16 10640",
        "'( -\\",
        "15 1",
        "15 7",
        "15 625",
        ",\\ ;\\",
        ",\\ ,\\,",
        "13 26",
        "), ~(",
        "25 9",
        "25 20",
        "25 65",
        "25 93",
        "25 92",
        "14 2",
        "18 2",
        "18 00",
        "}. {{",
        "17 3",
        "17 90",
        "BC B",
        "BC N",
        "27 6",
        "27 61",
        "27 07",
        ")- (\\",
        "24 1",
        "24 7",
        "24 000",
        "ABC A",
        "30 2",
        "30 6",
        "30 69",
        "'= {",
        "21 9",
        "}) }^",
        "}) }{\\",
        ")} '=",
        "32 80",
        "19 3",
        "19 4",
        "19 7",
        "19 8",
        "19 45",
        "19 98",
        "19 87",
        "MN D",
        "MN CD",
        "ax y",
        "}, (",
        "}, -\\",
        "}& \\",
        "100 7",
        "60 2",
        "60 4",
        "60 8",
        "60 53",
        "60 51",
        "40 32",
        "40 42",
        "40 68",
        "26 4",
        "26 6",
        "26 7",
        "AD M",
        "SB I",
        "23 1",
        "23 7",
        "SC I",
        "Ġ20 22",
        "\\, (\\",
        "50 40",
        "50 45",
        "29 2",
        "29 6",
        "35 3",
        "35 5",
        "35 6",
        "35 7",
        "35 9",
        "28 7",
        "28 00",
        "45 3",
        "45 6",
        "45 9",
        "34 7",
        "ch ngmin",
        "ABCD E",
        "48 00",
        "64 3",
        "33 1",
        ")}^{ -",
        ")}^{ -\\",
        "MB ND",
        "\\! =\\",
        "CD A",
        "CD E",
        "CD EF",
        "49 6",
        "49 99",
        "}}= {{\\",
        "65 6",
        "39 1",
        "39 5",
        "39 9",
        "39 99",
        "54 7",
        "MC A",
        "Ġ_{ [",
        "... +",
        "AM D",
        "', (",
        "38 2",
        "96 6",
        "|- |\\",
        "Ġ=- {",
        "200 5",
        "); (-",
        "56 7",
        "EF G",
        "44 3",
        "44 6",
        "43 24",
        "47 0",
        "47 7",
        "47 2761",
        "68 5",
        "68 9",
        "âĢĻ \\",
        "={ (\\",
        "500 00",
        "57 1",
        "57 4",
        "57 50",
        "67 3",
        "67 4",
        "67 20",
        "66 66",
        "77 6",
        "\\,\\ %",
        "\\,\\ ,\\,\\",
        ")] +\\",
        "NN NS",
        "98 3",
        "98 4",
        "58 4",
        "),\\, (",
        "300 3",
        "ro mannu",
        "SI F",
        "Oz x",
        "112 7",
        "115 2",
        "ĠOy z",
        "AP R",
        "`` \\",
        "=& -",
        "290 64",
        "(* )",
        "|, |",
        "Di amond",
        "LAR GE",
        "2707 25",
        "chngmin h",
        "romannu meral",
        "- -",
        "5 18",
        "b int",
        "g re",
        "n rightarrow",
        "n leftrightarrow",
        "r n",
        "r sim",
        "r ner",
        "Ġt cl",
        "ĠS AC",
        "at er",
        "var Phi",
        "co rner",
        "line break",
        "text gre",
        "no linebreak",
        "Le ftarrow",
        "box ed",
        "gt rsim",
        "bint rn",
        "textgre ater",
        "m mode",
        "r l",
        "u b",
        "Ġ\\ [",
        "Ġ\\ ]",
        "left eq",
        "var kappa",
        "Bigg m",
        "neg thick",
        "if mmode",
        "lefteq n",
        "negthick space",
        "! =",
        "! }}",
        "! }+\\",
        "\" =\\",
        "\" -\\",
        "\" +\\",
        "\" =-\\",
        "& <-",
        "' {",
        "' ):",
        "' ,\\",
        "' },\\",
        "' }.\\",
        "' ,~",
        "' |=|",
        "' ,\\;",
        ") (-",
        ") ;\\",
        ") ]}",
        ") )}",
        ") |+",
        ") )=-",
        ") }.\\",
        ") }}{(",
        ") !}{(",
        "+ (-",
        ", +",
        "- ~",
        "- {|",
        ". ,",
        "0 28",
        "0 48",
        "0 73",
        "1 125",
        "2 256",
        "3 360",
        "3 2000",
        "3 240",
        "3 141",
        "4 10",
        "4 18",
        "4 29",
        "4 22",
        "4 75",
        "4 65",
        "4 37",
        "4 120",
        "4 72",
        "5 10",
        "5 11",
        "5 14",
        "5 35",
        "5 72",
        "5 52",
        "5 180",
        "5 275",
        "6 13",
        "6 17",
        "6 28",
        "6 64",
        "6 39",
        "6 63",
        "6 10000",
        "7 15",
        "7 11",
        "7 17",
        "7 36",
        "7 60",
        "7 90",
        "7 65",
        "7 37",
        "7 80",
        "7 38",
        "7 61",
        "7 97",
        "8 13",
        "8 18",
        "8 32",
        "8 60",
        "8 64",
        "8 72",
        "8 56",
        "8 61",
        "8 99",
        "8 95",
        "8 82",
        "8 666",
        "9 10",
        "9 11",
        "9 14",
        "9 18",
        "9 36",
        "9 35",
        "9 22",
        "9 33",
        "9 80",
        "9 72",
        "9 96",
        "9 52",
        "; |",
        "= ~\\",
        "> {\\",
        "> (\\",
        "A Q",
        "A S",
        "A X",
        "A ABC",
        "A OC",
        "A IJ",
        "A OO",
        "B Y",
        "B SA",
        "B PQ",
        "C G",
        "C J",
        "C K",
        "C S",
        "C y",
        "C MA",
        "C SD",
        "D G",
        "D H",
        "D z",
        "D ABC",
        "D AC",
        "D SA",
        "D AA",
        "D CA",
        "E A",
        "E H",
        "E K",
        "E BC",
        "F A",
        "F D",
        "F KM",
        "G I",
        "G K",
        "G BC",
        "H I",
        "H AB",
        "I G",
        "I P",
        "I BD",
        "I FE",
        "K H",
        "K Q",
        "K MN",
        "M O",
        "M m",
        "M z",
        "M EF",
        "M BCD",
        "M OO",
        "M BCC",
        "N E",
        "N H",
        "N AB",
        "O K",
        "O EF",
        "O IA",
        "Q A",
        "Q P",
        "R P",
        "R S",
        "S x",
        "S ABCD",
        "S MA",
        "S MNP",
        "S EF",
        "S SN",
        "S IA",
        "X B",
        "\\ ,\\,",
        "] ?",
        "] }^{",
        "] \\,",
        "] '\\",
        "a S",
        "a q",
        "a u",
        "b n",
        "c f",
        "c t",
        "c y",
        "c en",
        "g am",
        "i b",
        "k F",
        "k g",
        "k t",
        "l r",
        "n S",
        "n V",
        "n b",
        "n h",
        "n z",
        "o s",
        "s ai",
        "u ge",
        "x x",
        "x ln",
        "x Oz",
        "| }=\\",
        "| }^{",
        "| }+\\",
        "| )+",
        "| {{",
        "| }-(",
        "} ]}",
        "} )=-\\",
        "} ')",
        "~ -~",
        "´ ng",
        "Ã ´ng",
        "Ġ} +",
        "Ġ} }=\\",
        "Ġ} =-",
        "Ġ} }+\\",
        "Ġ} {{",
        "Ġ} ={",
        "Ġ{ [",
        "Ġ2 16",
        "Ġ2 25",
        "Ġ2 30",
        "Ġ2 34",
        "Ġ2 33",
        "Ġ2 88",
        "Ġ) -",
        "Ġ) <",
        "Ġ) }{",
        "Ġ( {{",
        "Ġ1 08",
        "Ġ1 35",
        "Ġ1 125",
        "Ġ1 80",
        "Ġ1 74",
        "Ġ= |",
        "Ġ= ~",
        "Ġ0 48",
        "Ġx e",
        "in de",
        "right rightarrow",
        "right leftarrow",
        "Ġn y",
        "Ġ. {{",
        "Ġa y",
        "Ġa bc",
        "Ġt e",
        "Ġm i",
        "}{ [",
        "}{ -\\",
        "}{ |\\",
        "Ġ3 20",
        "Ġ3 00",
        "Ġ3 39",
        "Ġ3 38",
        "Ġk a",
        "Ġc os",
        "Ġs in",
        "Ġ& =-",
        "Ġ4 1",
        "Ġ4 6",
        "Ġ4 400",
        "Ġ| -",
        "Ġ| .",
        "ĠA I",
        "ĠA K",
        "ĠA M",
        "ĠA HK",
        "Ġ~ (",
        "Ġy y",
        "ĠM E",
        "ĠM AB",
        "ĠM hz",
        "ĠN D",
        "ĠN S",
        "ĠB AC",
        "ĠB AD",
        "ĠB HC",
        "ĠS F",
        "ĠS I",
        "ĠS K",
        "ĠS AD",
        "ĠS CD",
        "ĠS NN",
        "ĠS NS",
        "ĠC B",
        "ĠC E",
        "ĠD A",
        "ĠD E",
        "ĠP C",
        "Ġ5 2",
        "Ġ5 90",
        "Ġ5 400",
        "Ġ6 75",
        "Ġ6 72",
        "Ġ6 56",
        "Ġ6 87",
        "^{ ^",
        "^{ {",
        "^{ ^{",
        "Ġ8 6",
        "Ġ8 00",
        "Ġ8 50",
        "cos x",
        "Ġ7 0",
        "Ġ7 00",
        "Ġ7 28",
        "Ġ< -\\",
        "Ġ: \\,",
        "}} [",
        "}} =-\\",
        "}} }.",
        "}} }{(",
        "}} ,\\,",
        "}} }.\\",
        "Ġ9 5",
        "\\{ {\\",
        "\\{ {-",
        "}}{ [",
        "}}{ |",
        "}}{ (\\",
        "ĠO A",
        "{\\, (",
        "20 6",
        "20 9",
        "20 36",
        "20 26",
        "20 31",
        "20 41",
        "20 47",
        "20 99",
        "20 97",
        "20 98",
        "20 46",
        ")= [",
        "10 20",
        "10 16",
        "10 25",
        "}^{ *}",
        "\\} )",
        "=- (",
        "}^ +",
        "\\\\ (",
        "\\\\ -",
        "12 36",
        "12 60",
        "12 50",
        "12 48",
        "12 33",
        "12 75",
        "12 96",
        "12 85",
        "12 71",
        "AB E",
        "AB J",
        "AB FE",
        "}; }\\",
        "}- {{",
        "): {",
        "15 9",
        "15 16",
        "15 13",
        "15 000",
        "15 60",
        "15 54",
        "15 95",
        "13 25",
        "13 60",
        "13 23",
        "13 01",
        "), (-",
        "11 75",
        "11 80",
        "11 74",
        "25 5",
        ")+ [",
        ")+ {\\",
        ")+ {{\\",
        ")+ ...+",
        ")^{ ^{\\",
        ")^{ ^{-\\",
        ";\\ ,\\,",
        "]{ {\\",
        "]{ {{",
        "14 00",
        "14 16",
        "14 17",
        "14 33",
        "14 542",
        "{, }{",
        "}( {",
        "}( (\\",
        "18 3",
        "18 6",
        "18 7500",
        "17 8",
        "17 10",
        "17 00",
        "17 52",
        "17 53",
        "BC O",
        "27 4",
        "27 9",
        "}_{ {",
        ")- {",
        ")- (-",
        "24 25",
        "ABC C",
        "ABC E",
        "AC A",
        "AC E",
        "AC G",
        "AC H",
        "AC CA",
        "30 1",
        "30 8",
        "30 20",
        "21 97",
        "]} |",
        "}) (",
        "}) ;",
        "}) ]",
        "}) +(",
        "};\\ ;\\",
        "SA O",
        ")} ,",
        "32 15",
        "19 20",
        "19 59",
        "Ġ' )",
        "). }",
[...]
